#ifndef MODEL_DATA_H
#define MODEL_DATA_H

#include <cstdint>

const unsigned char g_model[] = {
  0x1c, 0x00, 0x00, 0x00, 0x54, 0x46, 0x4c, 0x33, 0x14, 0x00, 0x20, 0x00, 
  0x1c, 0x00, 0x18, 0x00, 0x14, 0x00, 0x10, 0x00, 0x0c, 0x00, 0x00, 0x00, 
  0x08, 0x00, 0x04, 0x00, 0x14, 0x00, 0x00, 0x00, 0x1c, 0x00, 0x00, 0x00, 
  0x98, 0x00, 0x00, 0x00, 0x18, 0x01, 0x00, 0x00, 0x20, 0x11, 0x00, 0x00, 
  0x30, 0x11, 0x00, 0x00, 0x3c, 0x21, 0x00, 0x00, 0x03, 0x00, 0x00, 0x00, 
  0x01, 0x00, 0x00, 0x00, 0x10, 0x00, 0x00, 0x00, 0x00, 0x00, 0x0a, 0x00, 
  0x10, 0x00, 0x0c, 0x00, 0x08, 0x00, 0x04, 0x00, 0x0a, 0x00, 0x00, 0x00, 
  0x0c, 0x00, 0x00, 0x00, 0x1c, 0x00, 0x00, 0x00, 0x3c, 0x00, 0x00, 0x00, 
  0x0f, 0x00, 0x00, 0x00, 0x73, 0x65, 0x72, 0x76, 0x69, 0x6e, 0x67, 0x5f, 
  0x64, 0x65, 0x66, 0x61, 0x75, 0x6c, 0x74, 0x00, 0x01, 0x00, 0x00, 0x00, 
  0x04, 0x00, 0x00, 0x00, 0x68, 0xff, 0xff, 0xff, 0x0a, 0x00, 0x00, 0x00, 
  0x04, 0x00, 0x00, 0x00, 0x08, 0x00, 0x00, 0x00, 0x6f, 0x75, 0x74, 0x70, 
  0x75, 0x74, 0x5f, 0x30, 0x00, 0x00, 0x00, 0x00, 0x01, 0x00, 0x00, 0x00, 
  0x04, 0x00, 0x00, 0x00, 0xc6, 0xee, 0xff, 0xff, 0x04, 0x00, 0x00, 0x00, 
  0x0f, 0x00, 0x00, 0x00, 0x6b, 0x65, 0x72, 0x61, 0x73, 0x5f, 0x74, 0x65, 
  0x6e, 0x73, 0x6f, 0x72, 0x5f, 0x33, 0x32, 0x00, 0x03, 0x00, 0x00, 0x00, 
  0x5c, 0x00, 0x00, 0x00, 0x2c, 0x00, 0x00, 0x00, 0x04, 0x00, 0x00, 0x00, 
  0xb8, 0xff, 0xff, 0xff, 0x0e, 0x00, 0x00, 0x00, 0x04, 0x00, 0x00, 0x00, 
  0x13, 0x00, 0x00, 0x00, 0x43, 0x4f, 0x4e, 0x56, 0x45, 0x52, 0x53, 0x49, 
  0x4f, 0x4e, 0x5f, 0x4d, 0x45, 0x54, 0x41, 0x44, 0x41, 0x54, 0x41, 0x00, 
  0xdc, 0xff, 0xff, 0xff, 0x0d, 0x00, 0x00, 0x00, 0x04, 0x00, 0x00, 0x00, 
  0x13, 0x00, 0x00, 0x00, 0x6d, 0x69, 0x6e, 0x5f, 0x72, 0x75, 0x6e, 0x74, 
  0x69, 0x6d, 0x65, 0x5f, 0x76, 0x65, 0x72, 0x73, 0x69, 0x6f, 0x6e, 0x00, 
  0x08, 0x00, 0x0c, 0x00, 0x08, 0x00, 0x04, 0x00, 0x08, 0x00, 0x00, 0x00, 
  0x0c, 0x00, 0x00, 0x00, 0x04, 0x00, 0x00, 0x00, 0x13, 0x00, 0x00, 0x00, 
  0x6d, 0x69, 0x6e, 0x5f, 0x72, 0x75, 0x6e, 0x74, 0x69, 0x6d, 0x65, 0x5f, 
  0x76, 0x65, 0x72, 0x73, 0x69, 0x6f, 0x6e, 0x00, 0x0f, 0x00, 0x00, 0x00, 
  0x04, 0x10, 0x00, 0x00, 0xfc, 0x0f, 0x00, 0x00, 0xe4, 0x0f, 0x00, 0x00, 
  0x94, 0x0f, 0x00, 0x00, 0x04, 0x0f, 0x00, 0x00, 0xf4, 0x06, 0x00, 0x00, 
  0xe4, 0x05, 0x00, 0x00, 0xd4, 0x00, 0x00, 0x00, 0xcc, 0x00, 0x00, 0x00, 
  0xc4, 0x00, 0x00, 0x00, 0xbc, 0x00, 0x00, 0x00, 0xb4, 0x00, 0x00, 0x00, 
  0x94, 0x00, 0x00, 0x00, 0x74, 0x00, 0x00, 0x00, 0x04, 0x00, 0x00, 0x00, 
  0xa6, 0xef, 0xff, 0xff, 0x04, 0x00, 0x00, 0x00, 0x60, 0x00, 0x00, 0x00, 
  0x0c, 0x00, 0x00, 0x00, 0x08, 0x00, 0x0e, 0x00, 0x08, 0x00, 0x04, 0x00, 
  0x08, 0x00, 0x00, 0x00, 0x10, 0x00, 0x00, 0x00, 0x28, 0x00, 0x00, 0x00, 
  0x00, 0x00, 0x06, 0x00, 0x08, 0x00, 0x04, 0x00, 0x06, 0x00, 0x00, 0x00, 
  0x04, 0x00, 0x00, 0x00, 0x01, 0x00, 0x00, 0x00, 0xeb, 0x03, 0x00, 0x00, 
  0x0c, 0x00, 0x18, 0x00, 0x14, 0x00, 0x10, 0x00, 0x0c, 0x00, 0x04, 0x00, 
  0x0c, 0x00, 0x00, 0x00, 0x53, 0xa6, 0x48, 0x87, 0xc3, 0x9f, 0xe5, 0x2a, 
  0x02, 0x00, 0x00, 0x00, 0x02, 0x00, 0x00, 0x00, 0x04, 0x00, 0x00, 0x00, 
  0x06, 0x00, 0x00, 0x00, 0x32, 0x2e, 0x31, 0x38, 0x2e, 0x30, 0x00, 0x00, 
  0x12, 0xf0, 0xff, 0xff, 0x04, 0x00, 0x00, 0x00, 0x10, 0x00, 0x00, 0x00, 
  0x00, 0x00, 0x00, 0x00, 0x00, 0x00, 0x00, 0x00, 0x00, 0x00, 0x00, 0x00, 
  0x00, 0x00, 0x00, 0x00, 0x2e, 0xf0, 0xff, 0xff, 0x04, 0x00, 0x00, 0x00, 
  0x10, 0x00, 0x00, 0x00, 0x31, 0x2e, 0x31, 0x34, 0x2e, 0x30, 0x00, 0x00, 
  0x00, 0x00, 0x00, 0x00, 0x00, 0x00, 0x00, 0x00, 0x18, 0xf0, 0xff, 0xff, 
  0x1c, 0xf0, 0xff, 0xff, 0x20, 0xf0, 0xff, 0xff, 0x24, 0xf0, 0xff, 0xff, 
  0x5a, 0xf0, 0xff, 0xff, 0x04, 0x00, 0x00, 0x00, 0x00, 0x05, 0x00, 0x00, 
  0xf1, 0xf3, 0x19, 0x6a, 0x40, 0x44, 0x72, 0xe5, 0x76, 0x1a, 0x1e, 0xc6, 
  0x81, 0xa7, 0x46, 0xda, 0xd1, 0xd0, 0x66, 0xa0, 0x0f, 0x47, 0x5b, 0x26, 
  0xf5, 0x91, 0xed, 0x20, 0x7f, 0x3a, 0xc6, 0xc2, 0xab, 0xa3, 0xa0, 0x19, 
  0x31, 0xeb, 0x4e, 0xd2, 0x6e, 0xdf, 0x81, 0x35, 0x1c, 0xbd, 0xb1, 0xa4, 
  0xca, 0x86, 0x31, 0x9f, 0xdd, 0x07, 0x42, 0xce, 0x38, 0x25, 0xc2, 0xf0, 
  0xc7, 0xe8, 0xab, 0xb9, 0x15, 0xf0, 0x57, 0x89, 0xfc, 0x63, 0xd3, 0x4d, 
  0x66, 0xfb, 0x30, 0xaa, 0x7f, 0x38, 0xa8, 0x06, 0x7a, 0xbb, 0xe8, 0x08, 
  0xe4, 0x91, 0x0d, 0x34, 0x90, 0x7f, 0x3f, 0x64, 0x7b, 0xb6, 0x62, 0x60, 
  0xba, 0x2b, 0x46, 0xef, 0xda, 0x3d, 0xc1, 0x16, 0xc8, 0xfe, 0xfa, 0xc4, 
  0x3d, 0x81, 0x4c, 0x1f, 0xc0, 0x43, 0xe0, 0xc0, 0x30, 0xb6, 0x09, 0x33, 
  0xb5, 0x07, 0xf6, 0xff, 0x12, 0xb2, 0xe8, 0xef, 0xeb, 0x0a, 0x3d, 0xa1, 
  0x60, 0x7f, 0x8d, 0xa9, 0x91, 0x41, 0xc3, 0x68, 0x4e, 0x81, 0x03, 0x43, 
  0xdb, 0x04, 0x88, 0xa7, 0x20, 0x50, 0x99, 0x02, 0x01, 0xe8, 0x49, 0x07, 
  0x5c, 0x84, 0xc9, 0x0c, 0x66, 0xe4, 0xc4, 0x7a, 0x40, 0x7d, 0xa8, 0x6c, 
  0x5b, 0xb4, 0xab, 0x2e, 0x11, 0x38, 0xac, 0x81, 0xbf, 0x0a, 0x81, 0x2e, 
  0x03, 0xf3, 0x06, 0xcf, 0x61, 0xa2, 0x7f, 0x86, 0x43, 0xf6, 0x4b, 0x4b, 
  0xfa, 0x05, 0x3d, 0xd8, 0xac, 0x41, 0xff, 0x69, 0xb3, 0x7f, 0xd8, 0x4d, 
  0x0f, 0xa8, 0x73, 0xa4, 0xf7, 0xdd, 0x55, 0x12, 0x1a, 0x0c, 0xce, 0xbc, 
  0xe7, 0x58, 0xfc, 0x32, 0xa9, 0x04, 0xa8, 0x1b, 0xbf, 0x73, 0x97, 0x9e, 
  0x39, 0x6f, 0x81, 0xe1, 0x61, 0xff, 0x36, 0xf8, 0xac, 0xed, 0x42, 0xba, 
  0xfd, 0x2e, 0x2d, 0x4b, 0x50, 0x6a, 0x81, 0x55, 0x1b, 0x1b, 0xbb, 0x24, 
  0x03, 0xc1, 0x91, 0x39, 0xd1, 0xce, 0xaa, 0x22, 0x11, 0xd2, 0xce, 0xd3, 
  0x59, 0xa4, 0xd4, 0x1f, 0x55, 0x35, 0xd6, 0x53, 0x81, 0x37, 0xa5, 0x9a, 
  0xd9, 0x2c, 0xb8, 0xff, 0xb7, 0x56, 0x75, 0x4b, 0xfa, 0x0f, 0xd1, 0x48, 
  0x81, 0x89, 0xf5, 0x33, 0x4d, 0x29, 0x9b, 0xb3, 0xe4, 0x25, 0x03, 0x9a, 
  0x1b, 0xb3, 0x0d, 0xb0, 0x02, 0xc2, 0xbf, 0xf5, 0x98, 0x6b, 0x81, 0x56, 
  0x98, 0xc6, 0x86, 0xd8, 0xe0, 0x13, 0x12, 0x7b, 0x2b, 0x87, 0x19, 0xdc, 
  0x05, 0x8e, 0x93, 0xae, 0x2d, 0x10, 0x5a, 0x44, 0xc7, 0xbb, 0x7f, 0x55, 
  0x1b, 0xe2, 0x8c, 0x0f, 0xdb, 0x3c, 0x9d, 0x3c, 0xa8, 0xe6, 0x49, 0x93, 
  0x15, 0x1e, 0x81, 0xdc, 0xfc, 0xd4, 0x02, 0xc1, 0x4f, 0xb8, 0x31, 0x72, 
  0x68, 0x73, 0x1f, 0x22, 0x9a, 0x09, 0x47, 0x09, 0xe9, 0x94, 0xdc, 0x81, 
  0xe8, 0x51, 0xc2, 0xf9, 0xa5, 0x1f, 0xb0, 0xae, 0xd4, 0x09, 0x1e, 0xfc, 
  0x47, 0x4a, 0xe6, 0xd0, 0x3e, 0xae, 0xca, 0xf0, 0xeb, 0xf3, 0x70, 0xbc, 
  0xcf, 0x7f, 0x3d, 0xc7, 0x7f, 0x2e, 0x79, 0xde, 0x92, 0x06, 0x51, 0x89, 
  0x77, 0x7c, 0xc8, 0x09, 0xe6, 0x6a, 0x1f, 0x2e, 0x0d, 0x4e, 0x54, 0xfd, 
  0x91, 0x11, 0x7f, 0xb5, 0xd2, 0xb0, 0x7b, 0x22, 0x68, 0x0f, 0xf8, 0xd3, 
  0x23, 0x5e, 0xc5, 0x66, 0x57, 0xbb, 0xd5, 0x74, 0x7f, 0x56, 0xb1, 0x0c, 
  0x43, 0x7a, 0x3f, 0x1e, 0xef, 0xae, 0x50, 0x07, 0x99, 0x6c, 0x99, 0x0b, 
  0xdc, 0x99, 0x95, 0xa2, 0x09, 0xc4, 0x09, 0x69, 0x4e, 0xca, 0x9c, 0xe4, 
  0xb9, 0x35, 0x4b, 0x81, 0x08, 0x93, 0x94, 0x1d, 0x3f, 0x0e, 0x9f, 0x28, 
  0x5a, 0x4c, 0xe2, 0xeb, 0xea, 0x64, 0xb7, 0xf8, 0x9f, 0x8a, 0x8a, 0xf8, 
  0xb2, 0x18, 0xcc, 0xc3, 0x4a, 0xc6, 0xda, 0x81, 0x39, 0xb7, 0x66, 0x12, 
  0x77, 0x81, 0xd2, 0xbc, 0xa8, 0x3d, 0x03, 0xe2, 0xfa, 0x15, 0x29, 0x66, 
  0x90, 0x2f, 0x33, 0x16, 0x0c, 0x16, 0x1f, 0x25, 0x82, 0x5d, 0x1f, 0xb1, 
  0x42, 0x15, 0x1c, 0x51, 0x7f, 0xc8, 0xff, 0xac, 0x97, 0x2a, 0x47, 0x0b, 
  0x10, 0x81, 0xd1, 0xeb, 0x83, 0x16, 0xe2, 0xbf, 0x8d, 0xf2, 0x49, 0xb8, 
  0xe6, 0x5e, 0x5d, 0x8b, 0xda, 0xef, 0x93, 0x6e, 0xce, 0xbc, 0x3b, 0xbf, 
  0x03, 0x22, 0xd0, 0x54, 0xbf, 0x60, 0xc8, 0x96, 0x41, 0x56, 0x21, 0xdf, 
  0xdd, 0xaa, 0x7f, 0xb0, 0xd9, 0x5d, 0xd7, 0x2e, 0xf4, 0xf8, 0x50, 0x05, 
  0x38, 0x32, 0x28, 0xbf, 0xc0, 0x56, 0x40, 0xf7, 0xda, 0x7f, 0x4f, 0xbd, 
  0xb3, 0xb1, 0xf7, 0x50, 0x94, 0xa1, 0xc2, 0x50, 0x81, 0xb6, 0xbc, 0x2a, 
  0x06, 0x4c, 0x68, 0xcf, 0x6b, 0x4c, 0xb9, 0xbd, 0x7f, 0x9e, 0xe7, 0x32, 
  0x10, 0x50, 0xce, 0xfd, 0xd9, 0x3e, 0x98, 0xfd, 0x30, 0x9e, 0x9f, 0x03, 
  0x44, 0x60, 0x56, 0xb4, 0x61, 0xa5, 0xa5, 0x92, 0x41, 0x81, 0x39, 0x54, 
  0xb6, 0xbb, 0x36, 0x93, 0x03, 0x7a, 0xe6, 0xbf, 0x51, 0x74, 0xad, 0x05, 
  0xba, 0xf5, 0x20, 0x91, 0x94, 0x3e, 0xae, 0x63, 0xb4, 0x2f, 0x81, 0xfa, 
  0x07, 0x30, 0xbd, 0xa3, 0x56, 0x4b, 0x1f, 0x14, 0x52, 0xc0, 0xc2, 0x69, 
  0x59, 0x4c, 0xbe, 0xdc, 0x60, 0xff, 0xde, 0xb0, 0xda, 0xc0, 0x95, 0xd2, 
  0x1c, 0xe3, 0x7f, 0x77, 0x2b, 0x68, 0xf3, 0x3e, 0x7f, 0x9f, 0xd4, 0x12, 
  0x95, 0xd7, 0xb4, 0x4b, 0x34, 0x27, 0xbc, 0x69, 0xfa, 0x7d, 0xc1, 0xa3, 
  0xe3, 0x81, 0x4e, 0x58, 0xb8, 0x9e, 0xd1, 0x28, 0x3d, 0x6f, 0x26, 0x3a, 
  0x1b, 0xe3, 0xf9, 0xbc, 0x08, 0xff, 0x08, 0x4e, 0x78, 0xc7, 0xc9, 0x1b, 
  0x69, 0xdc, 0x3a, 0xb2, 0x73, 0xa1, 0x37, 0xf3, 0xbd, 0x05, 0xfb, 0x81, 
  0xf8, 0x4e, 0x9f, 0x15, 0xe6, 0x5c, 0x31, 0xa8, 0x6a, 0xf8, 0x55, 0x0d, 
  0xdf, 0x64, 0x76, 0x5e, 0x86, 0xcf, 0x03, 0x21, 0xa6, 0x09, 0x63, 0x81, 
  0xa9, 0x56, 0xaf, 0x5d, 0xfc, 0xc4, 0x97, 0x59, 0xc0, 0xce, 0x19, 0x4f, 
  0xf2, 0xa9, 0xb0, 0x81, 0x6b, 0x42, 0xf8, 0xe6, 0x20, 0xf5, 0x7f, 0xd4, 
  0xc3, 0x41, 0x1d, 0x49, 0x8e, 0xdb, 0xdb, 0x71, 0xdf, 0x42, 0xaf, 0x40, 
  0x42, 0xcd, 0x2f, 0x2b, 0x19, 0x05, 0x9f, 0x60, 0xd0, 0x81, 0x46, 0x83, 
  0x4f, 0x64, 0xb8, 0x01, 0x71, 0x38, 0x27, 0x1b, 0x95, 0xc4, 0xfa, 0x4f, 
  0xa6, 0x2b, 0x05, 0x10, 0x4a, 0xa8, 0x00, 0x74, 0x42, 0x00, 0xc6, 0x3b, 
  0x47, 0x38, 0xdf, 0xfe, 0x37, 0x4c, 0x81, 0x09, 0x49, 0xd9, 0xe5, 0x3f, 
  0xf8, 0x7c, 0x30, 0x52, 0x8b, 0xce, 0xdd, 0x79, 0x10, 0x74, 0x7f, 0xe0, 
  0xa4, 0x81, 0x16, 0x67, 0x7f, 0xa3, 0x48, 0x5c, 0xf0, 0x76, 0x0f, 0x27, 
  0x86, 0x58, 0x6e, 0x26, 0x26, 0x35, 0x11, 0xc2, 0x4e, 0x2c, 0x62, 0x9e, 
  0x05, 0x06, 0x7a, 0x97, 0x06, 0x3c, 0x29, 0x56, 0xac, 0x92, 0xcf, 0xac, 
  0xe8, 0xaa, 0x6c, 0x07, 0x81, 0x23, 0xf1, 0xca, 0xe1, 0x95, 0x98, 0x2b, 
  0x36, 0x07, 0x3d, 0x4f, 0x4e, 0x61, 0xa2, 0xa0, 0x81, 0xca, 0xa8, 0xb1, 
  0xf4, 0x0c, 0xb2, 0xda, 0x01, 0x29, 0x4e, 0x37, 0x64, 0x08, 0xd7, 0xd3, 
  0xbd, 0xfd, 0x17, 0x3e, 0xa6, 0x3b, 0x62, 0x39, 0xf2, 0xfe, 0x81, 0x4b, 
  0xc5, 0xca, 0xe6, 0x2f, 0x24, 0x9a, 0x7a, 0xd5, 0xd0, 0xe1, 0x99, 0x81, 
  0x34, 0xc6, 0xb3, 0xb3, 0x28, 0x48, 0x51, 0x05, 0xc1, 0xd7, 0x48, 0x34, 
  0x0b, 0xe5, 0x29, 0xd3, 0xd2, 0x07, 0xd1, 0x29, 0xd3, 0xe1, 0x8e, 0x39, 
  0xe2, 0x7f, 0xb7, 0xea, 0x36, 0x9f, 0xb4, 0xad, 0xbc, 0xab, 0xa4, 0x81, 
  0x77, 0xd1, 0x40, 0xdc, 0xbb, 0x4d, 0x54, 0xe5, 0xce, 0xd7, 0x89, 0x89, 
  0xf7, 0x3f, 0x2f, 0xa3, 0x2e, 0xd4, 0xff, 0x99, 0xc3, 0xf0, 0x3f, 0x4f, 
  0x40, 0x5e, 0x8f, 0xbb, 0xe7, 0x81, 0xfd, 0x2a, 0xb1, 0x9d, 0x91, 0x8a, 
  0xa7, 0x26, 0xa9, 0x5e, 0x2a, 0xfb, 0xa1, 0x81, 0xcc, 0xd1, 0xd3, 0x22, 
  0xac, 0xa6, 0x96, 0x91, 0xaf, 0x59, 0xf5, 0xd2, 0x43, 0xa4, 0x50, 0x54, 
  0xf5, 0xe0, 0x99, 0x46, 0xfc, 0x31, 0x0e, 0xbf, 0xdb, 0x81, 0xb9, 0xf2, 
  0x10, 0x49, 0x1c, 0x2f, 0xac, 0xfd, 0x23, 0xc3, 0x32, 0xd5, 0x81, 0x47, 
  0x26, 0xcc, 0xb0, 0x02, 0xae, 0x6c, 0x21, 0x0b, 0x1d, 0xcf, 0x7f, 0xc8, 
  0x6f, 0x74, 0x8e, 0x5f, 0x3e, 0x25, 0x1e, 0x3a, 0x6e, 0x24, 0xbe, 0x27, 
  0x3b, 0xf8, 0x54, 0xc6, 0xbe, 0x6a, 0x3d, 0x23, 0x81, 0xd2, 0xc4, 0x12, 
  0xf7, 0x30, 0x99, 0x90, 0x22, 0x5d, 0x06, 0x9d, 0x88, 0x6a, 0xc7, 0xf9, 
  0xf6, 0xec, 0x28, 0x6c, 0x3c, 0x81, 0x3d, 0xfe, 0x15, 0xd9, 0x86, 0xc5, 
  0xd7, 0x2a, 0x27, 0x85, 0xc2, 0x4a, 0x23, 0xd8, 0xa7, 0x3a, 0x81, 0x71, 
  0x29, 0xbf, 0xc4, 0x62, 0x31, 0xe3, 0xea, 0xd3, 0x0b, 0xc3, 0x2e, 0x60, 
  0x09, 0x3c, 0x18, 0x14, 0x14, 0x13, 0xeb, 0x0d, 0x56, 0xbe, 0xa8, 0x50, 
  0xbd, 0x5f, 0x81, 0x36, 0xfd, 0xdd, 0xc0, 0x1f, 0xcb, 0xbe, 0x18, 0x5a, 
  0xca, 0xe6, 0x17, 0x81, 0xe5, 0xa3, 0x47, 0xa8, 0x9e, 0x20, 0x51, 0x2e, 
  0xb5, 0x49, 0xdc, 0x44, 0x10, 0x8c, 0xdb, 0xd9, 0xb8, 0xc7, 0x30, 0x55, 
  0x6d, 0x30, 0xe3, 0x81, 0xf3, 0x11, 0xfc, 0x4a, 0x87, 0xfb, 0x0e, 0xac, 
  0xb9, 0x27, 0x48, 0xe4, 0xa9, 0xf7, 0x73, 0xf8, 0x81, 0x04, 0x63, 0xe6, 
  0x2f, 0x1b, 0x9b, 0xd1, 0x0c, 0xd8, 0x51, 0xdc, 0x59, 0xa0, 0x62, 0x17, 
  0xae, 0x9a, 0xf7, 0xc8, 0x87, 0x06, 0x6d, 0x50, 0x14, 0x79, 0x70, 0x44, 
  0xbb, 0x1b, 0xdb, 0x81, 0x1e, 0x4e, 0xec, 0x63, 0x66, 0xf5, 0xff, 0xff, 
  0x04, 0x00, 0x00, 0x00, 0x00, 0x01, 0x00, 0x00, 0xf7, 0xff, 0xff, 0xff, 
  0x04, 0x00, 0x00, 0x00, 0x00, 0x00, 0x00, 0x00, 0xf3, 0xff, 0xff, 0xff, 
  0x00, 0x00, 0x00, 0x00, 0xfb, 0xff, 0xff, 0xff, 0xf4, 0xff, 0xff, 0xff, 
  0x00, 0x00, 0x00, 0x00, 0x00, 0x00, 0x00, 0x00, 0xf9, 0xff, 0xff, 0xff, 
  0xff, 0xff, 0xff, 0xff, 0xf7, 0xff, 0xff, 0xff, 0xf1, 0xff, 0xff, 0xff, 
  0xfd, 0xff, 0xff, 0xff, 0xf3, 0xff, 0xff, 0xff, 0x00, 0x00, 0x00, 0x00, 
  0x00, 0x00, 0x00, 0x00, 0xff, 0xff, 0xff, 0xff, 0x00, 0x00, 0x00, 0x00, 
  0x03, 0x00, 0x00, 0x00, 0x00, 0x00, 0x00, 0x00, 0x03, 0x00, 0x00, 0x00, 
  0x00, 0x00, 0x00, 0x00, 0xfc, 0xff, 0xff, 0xff, 0x00, 0x00, 0x00, 0x00, 
  0x00, 0x00, 0x00, 0x00, 0x08, 0x00, 0x00, 0x00, 0xff, 0xff, 0xff, 0xff, 
  0xf8, 0xff, 0xff, 0xff, 0xfc, 0xff, 0xff, 0xff, 0xf6, 0xff, 0xff, 0xff, 
  0x00, 0x00, 0x00, 0x00, 0x00, 0x00, 0x00, 0x00, 0xfa, 0xff, 0xff, 0xff, 
  0x00, 0x00, 0x00, 0x00, 0xfc, 0xff, 0xff, 0xff, 0xfe, 0xff, 0xff, 0xff, 
  0x00, 0x00, 0x00, 0x00, 0xf3, 0xff, 0xff, 0xff, 0xf7, 0xff, 0xff, 0xff, 
  0x00, 0x00, 0x00, 0x00, 0xf7, 0xff, 0xff, 0xff, 0xfa, 0xff, 0xff, 0xff, 
  0x00, 0x00, 0x00, 0x00, 0x00, 0x00, 0x00, 0x00, 0xfc, 0xff, 0xff, 0xff, 
  0x05, 0x00, 0x00, 0x00, 0xf6, 0xff, 0xff, 0xff, 0xfb, 0xff, 0xff, 0xff, 
  0xfc, 0xff, 0xff, 0xff, 0x00, 0x00, 0x00, 0x00, 0xf4, 0xff, 0xff, 0xff, 
  0xf9, 0xff, 0xff, 0xff, 0x05, 0x00, 0x00, 0x00, 0x05, 0x00, 0x00, 0x00, 
  0xfb, 0xff, 0xff, 0xff, 0x00, 0x00, 0x00, 0x00, 0x03, 0x00, 0x00, 0x00, 
  0xf8, 0xff, 0xff, 0xff, 0x01, 0x00, 0x00, 0x00, 0xec, 0xff, 0xff, 0xff, 
  0xfa, 0xff, 0xff, 0xff, 0xf6, 0xff, 0xff, 0xff, 0x03, 0x00, 0x00, 0x00, 
  0x72, 0xf6, 0xff, 0xff, 0x04, 0x00, 0x00, 0x00, 0x00, 0x08, 0x00, 0x00, 
  0x50, 0x8f, 0x08, 0xc3, 0xed, 0x2e, 0x38, 0x3e, 0x15, 0xe3, 0xe2, 0xae, 
  0x9f, 0x28, 0xb8, 0x37, 0xbb, 0x56, 0x20, 0xbb, 0x25, 0x50, 0xf7, 0x34, 
  0x08, 0xbe, 0x81, 0x55, 0xae, 0xf0, 0x32, 0x03, 0xb2, 0x47, 0x2f, 0xe2, 
  0xa9, 0x32, 0xc2, 0x38, 0xb9, 0xed, 0x35, 0xc3, 0x1e, 0xda, 0x08, 0xcf, 
  0xb0, 0x4f, 0xce, 0x3f, 0x12, 0x53, 0xa7, 0xe6, 0x01, 0xa6, 0x4d, 0xe8, 
  0xbb, 0x3c, 0xce, 0xdc, 0x6d, 0x6f, 0xbf, 0x52, 0x69, 0xf5, 0xb1, 0xfd, 
  0x3e, 0x4e, 0x4b, 0xa4, 0x65, 0xc0, 0x41, 0x29, 0x3f, 0xf6, 0xcf, 0x5b, 
  0xa4, 0xf2, 0x0a, 0xa5, 0x67, 0xb8, 0x48, 0xeb, 0x04, 0x22, 0xef, 0xdc, 
  0x51, 0x5b, 0xe0, 0xe0, 0x65, 0xd6, 0x9c, 0xa0, 0x4a, 0x40, 0x1a, 0xe9, 
  0x47, 0x13, 0xfd, 0x89, 0xaa, 0xf2, 0x1b, 0xf9, 0x11, 0xbc, 0x26, 0xef, 
  0x81, 0x2f, 0xdb, 0x2b, 0xd8, 0x56, 0x38, 0x90, 0x49, 0x1b, 0xa2, 0x2b, 
  0xee, 0xdf, 0x4d, 0xe4, 0x24, 0xbc, 0x70, 0xea, 0x97, 0xd5, 0x3b, 0x8b, 
  0x10, 0x1c, 0x07, 0x2f, 0xbe, 0xc0, 0x89, 0xe8, 0xe2, 0xb2, 0x3b, 0xbf, 
  0xaa, 0xb3, 0xf2, 0x3b, 0xe1, 0xd6, 0xae, 0xd7, 0x71, 0x11, 0x34, 0x7f, 
  0x66, 0x2f, 0x63, 0x35, 0xa2, 0x30, 0x75, 0x3a, 0xc8, 0xfc, 0x24, 0xa0, 
  0x6c, 0x28, 0xce, 0xe0, 0xa2, 0x64, 0xd5, 0xd3, 0xa1, 0x44, 0xa0, 0x49, 
  0x4a, 0xca, 0xc6, 0xb1, 0xf7, 0x17, 0xef, 0xac, 0xdf, 0xe1, 0x91, 0xf0, 
  0xd7, 0x0b, 0x43, 0xc8, 0xe1, 0x81, 0xe1, 0xef, 0x62, 0x16, 0xac, 0x56, 
  0x37, 0x0b, 0xc4, 0x45, 0x5c, 0x9e, 0x3c, 0x28, 0x9b, 0x60, 0x13, 0x1f, 
  0xa9, 0x66, 0x58, 0xf3, 0xdc, 0x51, 0x0f, 0xfb, 0x37, 0x11, 0x2c, 0x28, 
  0xda, 0x4f, 0x55, 0x2d, 0x47, 0xc2, 0x44, 0xdd, 0xa0, 0xc9, 0x0e, 0x68, 
  0x5d, 0xd2, 0x1a, 0x04, 0xbd, 0xe7, 0x16, 0xff, 0x17, 0xa0, 0x9b, 0xff, 
  0x93, 0x5e, 0xa7, 0x9f, 0x17, 0x64, 0x65, 0x00, 0xcc, 0xe0, 0x55, 0x13, 
  0xf4, 0x57, 0xb9, 0x4d, 0xcc, 0xa9, 0x20, 0x57, 0x90, 0x1c, 0x17, 0xcd, 
  0x57, 0x31, 0xef, 0xcb, 0xce, 0x2b, 0x6a, 0x1a, 0x93, 0xd6, 0x99, 0x27, 
  0x42, 0x56, 0xe8, 0x1f, 0xae, 0x81, 0xef, 0x51, 0xec, 0x5b, 0x0e, 0x4a, 
  0x22, 0x1e, 0x62, 0x29, 0x14, 0xf8, 0x15, 0x4b, 0xf0, 0x81, 0x2f, 0x61, 
  0x39, 0xa0, 0xf4, 0x54, 0x07, 0xab, 0x4d, 0x32, 0x9f, 0x03, 0x5c, 0xdf, 
  0x12, 0x41, 0xf8, 0xb0, 0xed, 0x62, 0xe1, 0xc3, 0xcc, 0x03, 0x0e, 0x48, 
  0x3f, 0xc4, 0xcb, 0xaf, 0xa8, 0x4a, 0xf3, 0xbe, 0x15, 0xfc, 0xd7, 0x2f, 
  0x5a, 0xf8, 0x41, 0x44, 0xb6, 0x20, 0xb2, 0x01, 0xeb, 0x6a, 0x3e, 0x17, 
  0xbd, 0x56, 0x8b, 0xd8, 0x5a, 0xce, 0xf0, 0x2f, 0xfc, 0xce, 0xda, 0xb3, 
  0x18, 0x77, 0x69, 0x61, 0xfa, 0x0e, 0x39, 0x49, 0x3a, 0x58, 0xfc, 0xc8, 
  0xa4, 0xeb, 0xab, 0x46, 0xef, 0x03, 0xf8, 0x31, 0xa9, 0x4e, 0x02, 0xb5, 
  0xae, 0xb6, 0x6d, 0x0e, 0xf3, 0x4b, 0x64, 0x40, 0x09, 0x15, 0x2a, 0x40, 
  0x6a, 0xba, 0x27, 0x70, 0xf4, 0xdd, 0xa2, 0x19, 0x02, 0xc4, 0x47, 0x05, 
  0x60, 0x81, 0xc8, 0xda, 0x9a, 0xef, 0x2e, 0x56, 0xf0, 0x06, 0xef, 0x07, 
  0x2a, 0x53, 0x50, 0xa9, 0xa7, 0x3e, 0xc9, 0xf0, 0xe9, 0xba, 0x1d, 0x19, 
  0xa7, 0xa6, 0xe3, 0x18, 0xdd, 0xc6, 0xbf, 0x49, 0x65, 0x91, 0xdc, 0xfc, 
  0xda, 0xab, 0x25, 0x18, 0x0f, 0xf7, 0xae, 0xfd, 0x8d, 0x55, 0xc2, 0x33, 
  0xe3, 0x3c, 0xa2, 0x0f, 0xd3, 0x2b, 0x53, 0xa5, 0x0c, 0xbc, 0x82, 0xea, 
  0xb7, 0x62, 0x0a, 0x88, 0x82, 0xba, 0x1f, 0x7f, 0xe7, 0xdb, 0xb6, 0xb1, 
  0x55, 0x05, 0xe2, 0xb7, 0xc8, 0xdb, 0x1b, 0xf0, 0x82, 0xc0, 0x95, 0x00, 
  0xac, 0x20, 0x08, 0x37, 0xb6, 0x13, 0x44, 0x44, 0x4a, 0x4b, 0x5a, 0x3e, 
  0xb7, 0xae, 0xd7, 0x59, 0xc5, 0xc8, 0x11, 0x9f, 0x49, 0xa5, 0x81, 0x77, 
  0xc3, 0x35, 0x5d, 0x98, 0x59, 0xf5, 0xb8, 0xdf, 0x10, 0x28, 0x4d, 0x02, 
  0x0f, 0xdf, 0x37, 0x2a, 0xc2, 0x54, 0x27, 0x76, 0x5f, 0x9f, 0x46, 0x4e, 
  0x2b, 0x10, 0xb3, 0x06, 0x92, 0xf8, 0xde, 0x9a, 0x53, 0xb5, 0x5f, 0xd9, 
  0xef, 0xf1, 0xd3, 0xcf, 0x17, 0xe6, 0xb9, 0x81, 0x10, 0x4f, 0xf8, 0xc7, 
  0xcd, 0x68, 0x57, 0x2b, 0xc9, 0xa5, 0x0e, 0xf1, 0xe4, 0x9a, 0x21, 0xc3, 
  0xb9, 0x0d, 0x81, 0x60, 0xfd, 0x17, 0x9c, 0x34, 0xbb, 0x1c, 0x26, 0x5e, 
  0x3f, 0x6d, 0xc1, 0x15, 0x37, 0x36, 0xd4, 0xbd, 0xc6, 0x20, 0x93, 0xf4, 
  0x23, 0x9f, 0x3f, 0xb6, 0xf4, 0x85, 0x5d, 0x09, 0xff, 0xae, 0xff, 0x08, 
  0x0b, 0x0e, 0xe1, 0x18, 0x75, 0xa3, 0x29, 0x3d, 0xaa, 0x33, 0x0e, 0xee, 
  0xdc, 0xd1, 0x21, 0x68, 0xf5, 0xa8, 0x6d, 0x8d, 0xed, 0xce, 0x4d, 0x73, 
  0xfa, 0x47, 0x89, 0xb4, 0xa0, 0x96, 0xbe, 0x31, 0x9b, 0x1b, 0x93, 0xa2, 
  0x5e, 0x29, 0xb4, 0xd9, 0xcf, 0x65, 0x18, 0x59, 0x8d, 0xb6, 0x81, 0x6f, 
  0x8f, 0x0f, 0x23, 0x40, 0xf4, 0xaa, 0xa0, 0xa2, 0xc4, 0x5c, 0xd0, 0xb0, 
  0x65, 0xdd, 0xbd, 0x8d, 0xf7, 0x56, 0xc8, 0xfe, 0x65, 0xde, 0xf9, 0x19, 
  0xc4, 0xb6, 0x42, 0xad, 0xd8, 0x24, 0x57, 0x55, 0xa2, 0xf9, 0xf7, 0x48, 
  0x90, 0x6f, 0xbb, 0xe1, 0x39, 0xa1, 0xf3, 0x09, 0xb3, 0xb4, 0xc3, 0x97, 
  0x65, 0x53, 0x3f, 0xfd, 0x99, 0x5f, 0x07, 0x67, 0x0d, 0x6b, 0x81, 0xd6, 
  0x03, 0x55, 0xdf, 0x0f, 0x4a, 0xd3, 0x08, 0xff, 0xe2, 0x15, 0x6f, 0x6d, 
  0xbc, 0xa6, 0x2c, 0x42, 0x0a, 0x97, 0x0e, 0x91, 0xa3, 0x0c, 0xd5, 0xa0, 
  0xea, 0x11, 0xb0, 0xb6, 0x86, 0xb3, 0x18, 0x53, 0xcb, 0x6a, 0x40, 0xa9, 
  0xd1, 0xf5, 0x1e, 0x1d, 0x5c, 0x0d, 0x03, 0x55, 0x19, 0xec, 0x14, 0x5c, 
  0xc6, 0x97, 0x67, 0xaf, 0xec, 0x70, 0x0f, 0x23, 0xb8, 0x87, 0xc1, 0x66, 
  0xe4, 0xc6, 0x81, 0x24, 0xcd, 0xa5, 0xbe, 0xa3, 0xb4, 0xe5, 0xa6, 0x00, 
  0x17, 0x3f, 0xea, 0x9e, 0x62, 0xb1, 0xaf, 0x2e, 0xe3, 0x36, 0xb4, 0xad, 
  0x29, 0x49, 0xa3, 0x02, 0x4f, 0x7f, 0x0e, 0xf3, 0x94, 0x52, 0x05, 0xad, 
  0x11, 0xa3, 0x44, 0xe0, 0x71, 0xaf, 0xd6, 0xfc, 0xcd, 0xea, 0xa9, 0x02, 
  0xb5, 0xcc, 0x0c, 0x43, 0x6a, 0x21, 0x6b, 0xbd, 0x9b, 0x97, 0x38, 0x0b, 
  0xf8, 0xa1, 0x38, 0x35, 0x3b, 0xce, 0xa3, 0x10, 0x33, 0x70, 0x26, 0x31, 
  0x8e, 0xa7, 0x56, 0x5b, 0x95, 0x56, 0xd2, 0xa8, 0x13, 0x26, 0x64, 0xad, 
  0x00, 0x3a, 0xdc, 0x13, 0x52, 0x97, 0x38, 0x8e, 0x5b, 0x62, 0x5a, 0xa9, 
  0xe6, 0x2d, 0xf4, 0x4e, 0x0b, 0xbf, 0x75, 0x1a, 0xbb, 0x49, 0x5d, 0xd8, 
  0x84, 0x8d, 0xe7, 0x98, 0x50, 0x83, 0x9e, 0x39, 0x37, 0x7f, 0x02, 0xee, 
  0x6d, 0x76, 0xc1, 0xca, 0xc3, 0x38, 0x45, 0xcf, 0x10, 0x8e, 0xcc, 0x1e, 
  0xf6, 0xd8, 0xb8, 0x53, 0x90, 0x40, 0x15, 0x85, 0xa4, 0x62, 0x8b, 0x7d, 
  0x44, 0xce, 0x0b, 0xd8, 0x3d, 0xd4, 0xd3, 0xb2, 0xe3, 0xbf, 0x4e, 0xcc, 
  0x69, 0x95, 0x6e, 0x47, 0x88, 0x34, 0x2e, 0x70, 0x90, 0x82, 0xed, 0xfa, 
  0x2c, 0x1d, 0x52, 0x92, 0xe7, 0x81, 0xcf, 0xed, 0xba, 0xef, 0xcc, 0xeb, 
  0x1f, 0x66, 0x1c, 0x14, 0x20, 0xf9, 0xdd, 0x8a, 0x47, 0x12, 0x63, 0xb2, 
  0x4b, 0xc2, 0xa5, 0xcc, 0x0f, 0x51, 0xf1, 0x2b, 0xb8, 0xf7, 0x9b, 0xb4, 
  0xae, 0x38, 0x52, 0x37, 0xc8, 0x90, 0xfe, 0x10, 0xaa, 0xbc, 0xfb, 0x1b, 
  0x61, 0x55, 0xab, 0x5a, 0x2c, 0x7a, 0x1b, 0x10, 0x0d, 0x1b, 0x35, 0xf6, 
  0xd5, 0xc8, 0xc9, 0x05, 0xb5, 0x9d, 0xeb, 0xd8, 0x5c, 0x81, 0xd8, 0xb7, 
  0x25, 0x95, 0xd9, 0x4c, 0xaf, 0xda, 0xe5, 0xec, 0x39, 0x46, 0xc8, 0x03, 
  0x9f, 0x6d, 0x2b, 0x60, 0x5d, 0xed, 0x12, 0xa9, 0xce, 0xe7, 0xcd, 0x93, 
  0x20, 0x9e, 0xc4, 0x38, 0x3e, 0x62, 0xab, 0xcf, 0xc0, 0xc4, 0xd5, 0xac, 
  0x62, 0x28, 0x15, 0xbd, 0x02, 0x58, 0xeb, 0xd2, 0xc2, 0xe7, 0xea, 0xf9, 
  0xe2, 0x5f, 0x50, 0x06, 0x0b, 0xc1, 0xdd, 0xe1, 0x51, 0x4a, 0x57, 0xf4, 
  0x66, 0x7f, 0x6b, 0x22, 0x04, 0xb6, 0xf6, 0xdd, 0x95, 0x03, 0xa2, 0xb2, 
  0x23, 0x31, 0x2b, 0x11, 0x25, 0x31, 0xb3, 0xb1, 0xc4, 0xcc, 0xce, 0xbc, 
  0xea, 0x4c, 0xf4, 0x94, 0xdf, 0x6f, 0x90, 0x43, 0x0d, 0x13, 0x4e, 0x63, 
  0x13, 0xa7, 0x4a, 0x21, 0x32, 0xa2, 0x62, 0xc4, 0xae, 0xfc, 0x0d, 0x68, 
  0x09, 0x43, 0x5c, 0xc3, 0x9e, 0x93, 0x41, 0xcb, 0x23, 0x43, 0xe3, 0x74, 
  0x53, 0x53, 0x37, 0x12, 0xed, 0x2f, 0x55, 0xe2, 0x8f, 0xa4, 0xd2, 0x34, 
  0xbd, 0x13, 0x47, 0xd1, 0x81, 0x34, 0x50, 0xef, 0x5c, 0x8f, 0x23, 0x9a, 
  0xd8, 0xfd, 0xe3, 0xfd, 0xc4, 0x5a, 0x7b, 0xfd, 0xfc, 0xa5, 0x38, 0xdd, 
  0x5f, 0x56, 0x45, 0xad, 0xf9, 0x67, 0x2a, 0xba, 0x2d, 0x7e, 0x77, 0x61, 
  0x36, 0xb2, 0xe1, 0x4f, 0x8d, 0x0f, 0x55, 0xe5, 0x1c, 0x3d, 0x05, 0x41, 
  0x5b, 0x95, 0x03, 0xcf, 0xfc, 0x43, 0x2f, 0x65, 0x4f, 0x95, 0x99, 0xd5, 
  0x63, 0x4f, 0xd8, 0xba, 0x72, 0x8f, 0x59, 0x81, 0x3a, 0x17, 0x23, 0x63, 
  0x29, 0xc9, 0x86, 0x9e, 0x65, 0x1e, 0xce, 0xb4, 0xdc, 0x0e, 0xae, 0xa3, 
  0xef, 0xac, 0xd9, 0x6a, 0x0a, 0x34, 0xa9, 0xbf, 0x3b, 0xaa, 0x51, 0xf3, 
  0x9e, 0x7e, 0xd8, 0xd3, 0x81, 0x6e, 0xeb, 0xb2, 0xff, 0xa9, 0xc2, 0x38, 
  0x28, 0x43, 0x5a, 0x4c, 0x8c, 0x4a, 0x91, 0x0f, 0xd5, 0xe0, 0x94, 0xf1, 
  0xcd, 0x3c, 0x1f, 0x9c, 0x8b, 0xc1, 0xb4, 0x87, 0x77, 0x7b, 0x36, 0x4c, 
  0xa5, 0x9c, 0x96, 0x8b, 0x3f, 0xdc, 0xf8, 0x06, 0xc0, 0x12, 0x82, 0xd5, 
  0x48, 0x4f, 0x6c, 0x27, 0xb2, 0x81, 0x82, 0xe5, 0x46, 0x1c, 0x22, 0x6a, 
  0x86, 0xd0, 0xd7, 0xef, 0x95, 0x7d, 0x3a, 0x52, 0x86, 0x26, 0xf3, 0x07, 
  0x1b, 0x11, 0xa8, 0x93, 0xe1, 0xf7, 0xf0, 0x41, 0x25, 0x61, 0xca, 0x1a, 
  0xa5, 0xf9, 0x20, 0xd8, 0x6d, 0xf5, 0x11, 0x3c, 0x78, 0xe3, 0x90, 0xa3, 
  0x2c, 0xbf, 0xd5, 0x19, 0x09, 0xd9, 0x53, 0x9b, 0x5d, 0x91, 0xbf, 0x2f, 
  0x1b, 0x1e, 0x40, 0x60, 0x06, 0x85, 0xf9, 0xb4, 0x22, 0x20, 0x2b, 0xca, 
  0x4f, 0xc3, 0x9c, 0x9b, 0x9d, 0x99, 0xed, 0xcf, 0x4f, 0x63, 0xce, 0xa4, 
  0x81, 0xfd, 0x0f, 0xb6, 0x1b, 0x10, 0x9b, 0xb2, 0xaa, 0x3e, 0xce, 0xb9, 
  0x0b, 0xd9, 0x4c, 0xac, 0x0c, 0xae, 0x5b, 0xa8, 0x05, 0x14, 0xc8, 0x08, 
  0x4d, 0xd4, 0xb4, 0xe1, 0x29, 0xa4, 0xe4, 0xa5, 0x41, 0xe3, 0x3a, 0xda, 
  0x01, 0xbf, 0x33, 0xe6, 0xe5, 0xf0, 0xc0, 0x51, 0xb4, 0x19, 0x23, 0x1c, 
  0x54, 0x27, 0x52, 0xfc, 0xd9, 0xf6, 0x3a, 0xe1, 0xf0, 0xe3, 0x81, 0x4a, 
  0x36, 0xef, 0x0c, 0xe1, 0x43, 0xe2, 0x2b, 0xb0, 0x36, 0x00, 0xcb, 0x0c, 
  0xa8, 0x66, 0xb8, 0x7e, 0x24, 0x65, 0xa2, 0x87, 0x59, 0x5c, 0x38, 0xac, 
  0x04, 0xc1, 0x23, 0xa2, 0xe9, 0xaf, 0x81, 0x62, 0x17, 0x37, 0xcd, 0xa4, 
  0x2c, 0xb0, 0x02, 0x27, 0x10, 0xe3, 0xa1, 0x15, 0x61, 0x31, 0x5e, 0xaa, 
  0xb0, 0x04, 0x51, 0xc9, 0x1f, 0x5e, 0x85, 0x48, 0x15, 0xed, 0x3f, 0x3d, 
  0xfb, 0xcc, 0xa2, 0xb0, 0x4e, 0x99, 0xd7, 0xb7, 0x28, 0xe0, 0x5f, 0x8c, 
  0x52, 0xcd, 0x8c, 0x64, 0x09, 0x12, 0x61, 0xbe, 0xfa, 0x02, 0xb3, 0x4c, 
  0x1e, 0x66, 0x0b, 0x96, 0x10, 0x9b, 0x5a, 0x81, 0x2b, 0xa4, 0xb9, 0xb1, 
  0xc6, 0xd2, 0xdd, 0x91, 0x3e, 0xd8, 0x11, 0x45, 0xea, 0xb7, 0x39, 0x69, 
  0xfd, 0xbe, 0x3e, 0xf6, 0x1c, 0x57, 0x0b, 0x47, 0x56, 0x20, 0x20, 0x36, 
  0xe7, 0x0d, 0x0b, 0x18, 0x91, 0x83, 0xaa, 0x31, 0xd8, 0x25, 0x09, 0x29, 
  0x31, 0x07, 0x99, 0xa4, 0x0b, 0xa5, 0x32, 0xb3, 0xaa, 0xf4, 0xd9, 0x74, 
  0x19, 0xdf, 0xe8, 0x22, 0x1e, 0xb7, 0xcc, 0xa0, 0x58, 0x65, 0x07, 0x8d, 
  0x27, 0xe0, 0xb4, 0x56, 0x67, 0x85, 0x95, 0x14, 0xa8, 0x93, 0x8c, 0x02, 
  0x5b, 0xc7, 0x29, 0xb9, 0x5a, 0x41, 0x55, 0x99, 0xde, 0xd2, 0x81, 0x08, 
  0x6e, 0x1f, 0x53, 0xd5, 0x22, 0xaf, 0x08, 0xf1, 0xc1, 0x9b, 0xcd, 0x75, 
  0x93, 0x28, 0x53, 0xfd, 0x15, 0xaa, 0x19, 0x66, 0x8d, 0x5b, 0xfc, 0x99, 
  0xb8, 0x00, 0x54, 0xe3, 0xd1, 0x46, 0xbb, 0x5b, 0x97, 0x02, 0xd8, 0xbc, 
  0x3b, 0x3b, 0x8d, 0x3f, 0xb9, 0xd0, 0x24, 0x34, 0xc8, 0x00, 0x46, 0x4d, 
  0xc4, 0x18, 0x0a, 0xf3, 0x2e, 0x29, 0x2e, 0x64, 0x68, 0xdc, 0xb5, 0xb8, 
  0x30, 0x1a, 0x37, 0x47, 0x09, 0x15, 0xc0, 0xd6, 0xa9, 0x5b, 0xf2, 0x31, 
  0x4c, 0xe9, 0xe0, 0xea, 0xb0, 0xc6, 0x81, 0x14, 0xea, 0x49, 0xf5, 0x44, 
  0x07, 0x81, 0xdf, 0xb5, 0x22, 0x48, 0x47, 0x9a, 0x19, 0x3f, 0x43, 0x58, 
  0x8e, 0x9a, 0x10, 0x42, 0x1d, 0xcf, 0xbb, 0x61, 0x2f, 0x53, 0x94, 0xb4, 
  0x6a, 0x44, 0xb0, 0x18, 0x38, 0xbe, 0x4d, 0x5c, 0x69, 0x0c, 0x41, 0x56, 
  0x00, 0x25, 0x31, 0x28, 0x13, 0xef, 0x88, 0xec, 0xe2, 0x54, 0xc0, 0xe6, 
  0xab, 0x02, 0xb2, 0xc3, 0x24, 0x4d, 0xe8, 0x22, 0x92, 0xd3, 0x99, 0xc1, 
  0x29, 0xb4, 0xf3, 0x11, 0xde, 0xd7, 0x3d, 0x18, 0xd4, 0x8f, 0x78, 0xe0, 
  0xba, 0x4d, 0xc9, 0x02, 0x87, 0x07, 0x9e, 0x6f, 0x32, 0x2c, 0x48, 0x91, 
  0xc0, 0xe7, 0xad, 0x73, 0x1e, 0x5f, 0x29, 0xa7, 0xd7, 0x97, 0x0e, 0xdd, 
  0x64, 0x85, 0x89, 0xf4, 0x13, 0x83, 0xea, 0x95, 0x23, 0x65, 0xdf, 0xbd, 
  0xbc, 0xd2, 0x7d, 0x29, 0xbd, 0x7f, 0x1b, 0xce, 0x90, 0x19, 0xc9, 0xc2, 
  0x42, 0x48, 0xb0, 0xe6, 0xc0, 0x7a, 0x39, 0xb7, 0x4c, 0x6d, 0xc9, 0x18, 
  0x53, 0x15, 0x25, 0x42, 0x23, 0x56, 0x66, 0x0e, 0x02, 0xfb, 0x00, 0x15, 
  0x6a, 0x30, 0x07, 0x62, 0xe7, 0xe6, 0x64, 0xd0, 0x91, 0xa0, 0x7f, 0x46, 
  0x81, 0x11, 0xf7, 0x6c, 0x11, 0x4c, 0x0b, 0xf2, 0xa1, 0x73, 0x24, 0xdd, 
  0x50, 0x5f, 0x6e, 0x6c, 0x3e, 0x14, 0x08, 0x16, 0x12, 0x49, 0xa6, 0xf2, 
  0x2b, 0xba, 0x0a, 0x18, 0xf9, 0x61, 0xaa, 0x7b, 0xca, 0x50, 0x53, 0x4e, 
  0x0f, 0x7f, 0x98, 0x46, 0x51, 0x12, 0xdd, 0x6d, 0xd5, 0xde, 0xa6, 0x3d, 
  0x1f, 0x5e, 0xa1, 0xe0, 0x68, 0x47, 0xb3, 0x2d, 0xc2, 0x0a, 0xe6, 0xa5, 
  0xc7, 0x38, 0xfc, 0x29, 0xfa, 0xee, 0xa8, 0x2a, 0xfa, 0x19, 0xcd, 0xa0, 
  0x53, 0x69, 0xb8, 0x6c, 0x1d, 0xa2, 0x4f, 0x39, 0x8c, 0xc3, 0xa4, 0x60, 
  0xd7, 0xe8, 0x0d, 0xe4, 0xf2, 0xbf, 0x6d, 0x7f, 0xaa, 0x31, 0xf5, 0x43, 
  0x21, 0x4b, 0xa9, 0xbe, 0xf9, 0xc1, 0x12, 0x95, 0x73, 0x7b, 0xe0, 0x3f, 
  0xea, 0xfb, 0xcb, 0xd1, 0xa4, 0x55, 0x63, 0xf6, 0x7d, 0x71, 0xe2, 0x32, 
  0xd7, 0x52, 0x46, 0x98, 0x27, 0x82, 0x61, 0x18, 0x22, 0xd5, 0x60, 0x9e, 
  0x47, 0x18, 0x32, 0x6d, 0x6c, 0x73, 0x93, 0xa9, 0xdd, 0xb7, 0x29, 0x2a, 
  0x53, 0x88, 0x27, 0xce, 0xe2, 0x64, 0x9d, 0x08, 0xca, 0x7c, 0x68, 0xb0, 
  0xa6, 0xbe, 0x6e, 0x2d, 0xd0, 0xd2, 0x81, 0xd9, 0x7e, 0xfe, 0xff, 0xff, 
  0x04, 0x00, 0x00, 0x00, 0x80, 0x00, 0x00, 0x00, 0xea, 0xff, 0xff, 0xff, 
  0xf7, 0xff, 0xff, 0xff, 0x3c, 0x00, 0x00, 0x00, 0x22, 0x00, 0x00, 0x00, 
  0xff, 0xff, 0xff, 0xff, 0xe0, 0xff, 0xff, 0xff, 0x15, 0x00, 0x00, 0x00, 
  0xff, 0xff, 0xff, 0xff, 0xdb, 0xff, 0xff, 0xff, 0xd7, 0xff, 0xff, 0xff, 
  0xe7, 0xff, 0xff, 0xff, 0xd7, 0xff, 0xff, 0xff, 0xd6, 0xff, 0xff, 0xff, 
  0x17, 0x00, 0x00, 0x00, 0x0b, 0x00, 0x00, 0x00, 0x1e, 0x00, 0x00, 0x00, 
  0xff, 0xff, 0xff, 0xff, 0xe3, 0xff, 0xff, 0xff, 0x26, 0x00, 0x00, 0x00, 
  0xe7, 0xff, 0xff, 0xff, 0xd3, 0xff, 0xff, 0xff, 0xd5, 0xff, 0xff, 0xff, 
  0xda, 0xff, 0xff, 0xff, 0xeb, 0xff, 0xff, 0xff, 0xc9, 0xff, 0xff, 0xff, 
  0x00, 0x00, 0x00, 0x00, 0x09, 0x00, 0x00, 0x00, 0xdb, 0xff, 0xff, 0xff, 
  0xf6, 0xff, 0xff, 0xff, 0x1c, 0x00, 0x00, 0x00, 0x19, 0x00, 0x00, 0x00, 
  0x2f, 0x00, 0x00, 0x00, 0x0a, 0xff, 0xff, 0xff, 0x04, 0x00, 0x00, 0x00, 
  0x40, 0x00, 0x00, 0x00, 0xf4, 0x35, 0xe6, 0xe5, 0x7f, 0x49, 0x1f, 0x00, 
  0xa3, 0x0f, 0xdf, 0x9e, 0xce, 0x34, 0x42, 0xab, 0xcc, 0x4f, 0x6b, 0x7c, 
  0xfa, 0xa4, 0x07, 0x70, 0xc5, 0x91, 0xe1, 0xfa, 0x4c, 0xd6, 0x6b, 0x33, 
  0x68, 0xe3, 0xa5, 0xd3, 0x79, 0x5d, 0x9a, 0x7e, 0x1e, 0x34, 0x07, 0xcd, 
  0x2f, 0x32, 0xcc, 0x8b, 0x94, 0x7e, 0x3a, 0x81, 0xff, 0xd5, 0x20, 0xf7, 
  0x5b, 0x30, 0xcc, 0x25, 0xe8, 0x99, 0x57, 0x87, 0x56, 0xff, 0xff, 0xff, 
  0x04, 0x00, 0x00, 0x00, 0x08, 0x00, 0x00, 0x00, 0x19, 0x00, 0x00, 0x00, 
  0xe7, 0xff, 0xff, 0xff, 0x38, 0xff, 0xff, 0xff, 0x3c, 0xff, 0xff, 0xff, 
  0x0f, 0x00, 0x00, 0x00, 0x4d, 0x4c, 0x49, 0x52, 0x20, 0x43, 0x6f, 0x6e, 
  0x76, 0x65, 0x72, 0x74, 0x65, 0x64, 0x2e, 0x00, 0x01, 0x00, 0x00, 0x00, 
  0x14, 0x00, 0x00, 0x00, 0x00, 0x00, 0x0e, 0x00, 0x18, 0x00, 0x14, 0x00, 
  0x10, 0x00, 0x0c, 0x00, 0x08, 0x00, 0x04, 0x00, 0x0e, 0x00, 0x00, 0x00, 
  0x14, 0x00, 0x00, 0x00, 0x1c, 0x00, 0x00, 0x00, 0x28, 0x01, 0x00, 0x00, 
  0x2c, 0x01, 0x00, 0x00, 0x30, 0x01, 0x00, 0x00, 0x04, 0x00, 0x00, 0x00, 
  0x6d, 0x61, 0x69, 0x6e, 0x00, 0x00, 0x00, 0x00, 0x04, 0x00, 0x00, 0x00, 
  0xd0, 0x00, 0x00, 0x00, 0x88, 0x00, 0x00, 0x00, 0x50, 0x00, 0x00, 0x00, 
  0x14, 0x00, 0x00, 0x00, 0x00, 0x00, 0x0e, 0x00, 0x1a, 0x00, 0x14, 0x00, 
  0x10, 0x00, 0x0c, 0x00, 0x0b, 0x00, 0x04, 0x00, 0x0e, 0x00, 0x00, 0x00, 
  0x1c, 0x00, 0x00, 0x00, 0x00, 0x00, 0x00, 0x09, 0x1c, 0x00, 0x00, 0x00, 
  0x20, 0x00, 0x00, 0x00, 0x01, 0x00, 0x00, 0x00, 0x00, 0x00, 0x06, 0x00, 
  0x08, 0x00, 0x04, 0x00, 0x06, 0x00, 0x00, 0x00, 0x00, 0x00, 0x80, 0x3f, 
  0x01, 0x00, 0x00, 0x00, 0x0a, 0x00, 0x00, 0x00, 0x01, 0x00, 0x00, 0x00, 
  0x09, 0x00, 0x00, 0x00, 0x96, 0xff, 0xff, 0xff, 0x14, 0x00, 0x00, 0x00, 
  0x00, 0x00, 0x00, 0x08, 0x10, 0x00, 0x00, 0x00, 0x14, 0x00, 0x00, 0x00, 
  0x04, 0x00, 0x04, 0x00, 0x04, 0x00, 0x00, 0x00, 0x01, 0x00, 0x00, 0x00, 
  0x09, 0x00, 0x00, 0x00, 0x03, 0x00, 0x00, 0x00, 0x08, 0x00, 0x00, 0x00, 
  0x02, 0x00, 0x00, 0x00, 0x01, 0x00, 0x00, 0x00, 0xca, 0xff, 0xff, 0xff, 
  0x10, 0x00, 0x00, 0x00, 0x00, 0x00, 0x00, 0x08, 0x10, 0x00, 0x00, 0x00, 
  0x14, 0x00, 0x00, 0x00, 0xba, 0xff, 0xff, 0xff, 0x00, 0x00, 0x00, 0x01, 
  0x01, 0x00, 0x00, 0x00, 0x08, 0x00, 0x00, 0x00, 0x03, 0x00, 0x00, 0x00, 
  0x07, 0x00, 0x00, 0x00, 0x04, 0x00, 0x00, 0x00, 0x03, 0x00, 0x00, 0x00, 
  0x00, 0x00, 0x0e, 0x00, 0x16, 0x00, 0x00, 0x00, 0x10, 0x00, 0x0c, 0x00, 
  0x0b, 0x00, 0x04, 0x00, 0x0e, 0x00, 0x00, 0x00, 0x18, 0x00, 0x00, 0x00, 
  0x00, 0x00, 0x00, 0x08, 0x18, 0x00, 0x00, 0x00, 0x1c, 0x00, 0x00, 0x00, 
  0x00, 0x00, 0x06, 0x00, 0x08, 0x00, 0x07, 0x00, 0x06, 0x00, 0x00, 0x00, 
  0x00, 0x00, 0x00, 0x01, 0x01, 0x00, 0x00, 0x00, 0x07, 0x00, 0x00, 0x00, 
  0x03, 0x00, 0x00, 0x00, 0x00, 0x00, 0x00, 0x00, 0x06, 0x00, 0x00, 0x00, 
  0x05, 0x00, 0x00, 0x00, 0x01, 0x00, 0x00, 0x00, 0x0a, 0x00, 0x00, 0x00, 
  0x01, 0x00, 0x00, 0x00, 0x00, 0x00, 0x00, 0x00, 0x0b, 0x00, 0x00, 0x00, 
  0x20, 0x0e, 0x00, 0x00, 0x98, 0x0d, 0x00, 0x00, 0x0c, 0x0d, 0x00, 0x00, 
  0x38, 0x0b, 0x00, 0x00, 0x5c, 0x09, 0x00, 0x00, 0x08, 0x06, 0x00, 0x00, 
  0xac, 0x02, 0x00, 0x00, 0xe8, 0x01, 0x00, 0x00, 0x24, 0x01, 0x00, 0x00, 
  0x80, 0x00, 0x00, 0x00, 0x04, 0x00, 0x00, 0x00, 0x22, 0xf2, 0xff, 0xff, 
  0x00, 0x00, 0x00, 0x01, 0x18, 0x00, 0x00, 0x00, 0x20, 0x00, 0x00, 0x00, 
  0x3c, 0x00, 0x00, 0x00, 0x0b, 0x00, 0x00, 0x00, 0x00, 0x00, 0x00, 0x09, 
  0x50, 0x00, 0x00, 0x00, 0x02, 0x00, 0x00, 0x00, 0xff, 0xff, 0xff, 0xff, 
  0x02, 0x00, 0x00, 0x00, 0x0c, 0xf2, 0xff, 0xff, 0x08, 0x00, 0x00, 0x00, 
  0x10, 0x00, 0x00, 0x00, 0x01, 0x00, 0x00, 0x00, 0x80, 0xff, 0xff, 0xff, 
  0xff, 0xff, 0xff, 0xff, 0x01, 0x00, 0x00, 0x00, 0x00, 0x00, 0x80, 0x3b, 
  0x1b, 0x00, 0x00, 0x00, 0x53, 0x74, 0x61, 0x74, 0x65, 0x66, 0x75, 0x6c, 
  0x50, 0x61, 0x72, 0x74, 0x69, 0x74, 0x69, 0x6f, 0x6e, 0x65, 0x64, 0x43, 
  0x61, 0x6c, 0x6c, 0x5f, 0x31, 0x3a, 0x30, 0x00, 0x02, 0x00, 0x00, 0x00, 
  0x01, 0x00, 0x00, 0x00, 0x02, 0x00, 0x00, 0x00, 0x9a, 0xf2, 0xff, 0xff, 
  0x00, 0x00, 0x00, 0x01, 0x18, 0x00, 0x00, 0x00, 0x20, 0x00, 0x00, 0x00, 
  0x3c, 0x00, 0x00, 0x00, 0x0a, 0x00, 0x00, 0x00, 0x00, 0x00, 0x00, 0x09, 
  0x78, 0x00, 0x00, 0x00, 0x02, 0x00, 0x00, 0x00, 0xff, 0xff, 0xff, 0xff, 
  0x02, 0x00, 0x00, 0x00, 0x84, 0xf2, 0xff, 0xff, 0x08, 0x00, 0x00, 0x00, 
  0x10, 0x00, 0x00, 0x00, 0x01, 0x00, 0x00, 0x00, 0xad, 0xff, 0xff, 0xff, 
  0xff, 0xff, 0xff, 0xff, 0x01, 0x00, 0x00, 0x00, 0xa6, 0x1c, 0x2a, 0x3e, 
  0x42, 0x00, 0x00, 0x00, 0x73, 0x65, 0x71, 0x75, 0x65, 0x6e, 0x74, 0x69, 
  0x61, 0x6c, 0x5f, 0x34, 0x5f, 0x31, 0x2f, 0x64, 0x65, 0x6e, 0x73, 0x65, 
  0x5f, 0x31, 0x30, 0x5f, 0x31, 0x2f, 0x4d, 0x61, 0x74, 0x4d, 0x75, 0x6c, 
  0x3b, 0x73, 0x65, 0x71, 0x75, 0x65, 0x6e, 0x74, 0x69, 0x61, 0x6c, 0x5f, 
  0x34, 0x5f, 0x31, 0x2f, 0x64, 0x65, 0x6e, 0x73, 0x65, 0x5f, 0x31, 0x30, 
  0x5f, 0x31, 0x2f, 0x42, 0x69, 0x61, 0x73, 0x41, 0x64, 0x64, 0x00, 0x00, 
  0x02, 0x00, 0x00, 0x00, 0x01, 0x00, 0x00, 0x00, 0x02, 0x00, 0x00, 0x00, 
  0x3a, 0xf3, 0xff, 0xff, 0x00, 0x00, 0x00, 0x01, 0x18, 0x00, 0x00, 0x00, 
  0x20, 0x00, 0x00, 0x00, 0x40, 0x00, 0x00, 0x00, 0x09, 0x00, 0x00, 0x00, 
  0x00, 0x00, 0x00, 0x09, 0x98, 0x00, 0x00, 0x00, 0x02, 0x00, 0x00, 0x00, 
  0xff, 0xff, 0xff, 0xff, 0x20, 0x00, 0x00, 0x00, 0x24, 0xf3, 0xff, 0xff, 
  0x08, 0x00, 0x00, 0x00, 0x14, 0x00, 0x00, 0x00, 0x01, 0x00, 0x00, 0x00, 
  0x80, 0xff, 0xff, 0xff, 0xff, 0xff, 0xff, 0xff, 0x00, 0x00, 0x00, 0x00, 
  0x01, 0x00, 0x00, 0x00, 0xb0, 0xcb, 0xa2, 0x3e, 0x5e, 0x00, 0x00, 0x00, 
  0x73, 0x65, 0x71, 0x75, 0x65, 0x6e, 0x74, 0x69, 0x61, 0x6c, 0x5f, 0x34, 
  0x5f, 0x31, 0x2f, 0x64, 0x65, 0x6e, 0x73, 0x65, 0x5f, 0x39, 0x5f, 0x31, 
  0x2f, 0x4d, 0x61, 0x74, 0x4d, 0x75, 0x6c, 0x3b, 0x73, 0x65, 0x71, 0x75, 
  0x65, 0x6e, 0x74, 0x69, 0x61, 0x6c, 0x5f, 0x34, 0x5f, 0x31, 0x2f, 0x64, 
  0x65, 0x6e, 0x73, 0x65, 0x5f, 0x39, 0x5f, 0x31, 0x2f, 0x52, 0x65, 0x6c, 
  0x75, 0x3b, 0x73, 0x65, 0x71, 0x75, 0x65, 0x6e, 0x74, 0x69, 0x61, 0x6c, 
  0x5f, 0x34, 0x5f, 0x31, 0x2f, 0x64, 0x65, 0x6e, 0x73, 0x65, 0x5f, 0x39, 
  0x5f, 0x31, 0x2f, 0x42, 0x69, 0x61, 0x73, 0x41, 0x64, 0x64, 0x00, 0x00, 
  0x02, 0x00, 0x00, 0x00, 0x01, 0x00, 0x00, 0x00, 0x20, 0x00, 0x00, 0x00, 
  0xfa, 0xf3, 0xff, 0xff, 0x00, 0x00, 0x00, 0x01, 0x18, 0x00, 0x00, 0x00, 
  0x20, 0x00, 0x00, 0x00, 0x40, 0x00, 0x00, 0x00, 0x08, 0x00, 0x00, 0x00, 
  0x00, 0x00, 0x00, 0x09, 0x98, 0x00, 0x00, 0x00, 0x02, 0x00, 0x00, 0x00, 
  0xff, 0xff, 0xff, 0xff, 0x40, 0x00, 0x00, 0x00, 0xe4, 0xf3, 0xff, 0xff, 
  0x08, 0x00, 0x00, 0x00, 0x14, 0x00, 0x00, 0x00, 0x01, 0x00, 0x00, 0x00, 
  0x80, 0xff, 0xff, 0xff, 0xff, 0xff, 0xff, 0xff, 0x00, 0x00, 0x00, 0x00, 
  0x01, 0x00, 0x00, 0x00, 0x6e, 0xc8, 0xb8, 0x3e, 0x5e, 0x00, 0x00, 0x00, 
  0x73, 0x65, 0x71, 0x75, 0x65, 0x6e, 0x74, 0x69, 0x61, 0x6c, 0x5f, 0x34, 
  0x5f, 0x31, 0x2f, 0x64, 0x65, 0x6e, 0x73, 0x65, 0x5f, 0x38, 0x5f, 0x31, 
  0x2f, 0x4d, 0x61, 0x74, 0x4d, 0x75, 0x6c, 0x3b, 0x73, 0x65, 0x71, 0x75, 
  0x65, 0x6e, 0x74, 0x69, 0x61, 0x6c, 0x5f, 0x34, 0x5f, 0x31, 0x2f, 0x64, 
  0x65, 0x6e, 0x73, 0x65, 0x5f, 0x38, 0x5f, 0x31, 0x2f, 0x52, 0x65, 0x6c, 
  0x75, 0x3b, 0x73, 0x65, 0x71, 0x75, 0x65, 0x6e, 0x74, 0x69, 0x61, 0x6c, 
  0x5f, 0x34, 0x5f, 0x31, 0x2f, 0x64, 0x65, 0x6e, 0x73, 0x65, 0x5f, 0x38, 
  0x5f, 0x31, 0x2f, 0x42, 0x69, 0x61, 0x73, 0x41, 0x64, 0x64, 0x00, 0x00, 
  0x02, 0x00, 0x00, 0x00, 0x01, 0x00, 0x00, 0x00, 0x40, 0x00, 0x00, 0x00, 
  0x3e, 0xf5, 0xff, 0xff, 0x00, 0x00, 0x00, 0x01, 0x14, 0x00, 0x00, 0x00, 
  0x28, 0x03, 0x00, 0x00, 0x07, 0x00, 0x00, 0x00, 0x00, 0x00, 0x00, 0x09, 
  0x34, 0x03, 0x00, 0x00, 0x94, 0xf4, 0xff, 0xff, 0x08, 0x00, 0x00, 0x00, 
  0x0c, 0x02, 0x00, 0x00, 0x40, 0x00, 0x00, 0x00, 0x00, 0x00, 0x00, 0x00, 
  0x00, 0x00, 0x00, 0x00, 0x00, 0x00, 0x00, 0x00, 0x00, 0x00, 0x00, 0x00, 
  0x00, 0x00, 0x00, 0x00, 0x00, 0x00, 0x00, 0x00, 0x00, 0x00, 0x00, 0x00, 
  0x00, 0x00, 0x00, 0x00, 0x00, 0x00, 0x00, 0x00, 0x00, 0x00, 0x00, 0x00, 
  0x00, 0x00, 0x00, 0x00, 0x00, 0x00, 0x00, 0x00, 0x00, 0x00, 0x00, 0x00, 
  0x00, 0x00, 0x00, 0x00, 0x00, 0x00, 0x00, 0x00, 0x00, 0x00, 0x00, 0x00, 
  0x00, 0x00, 0x00, 0x00, 0x00, 0x00, 0x00, 0x00, 0x00, 0x00, 0x00, 0x00, 
  0x00, 0x00, 0x00, 0x00, 0x00, 0x00, 0x00, 0x00, 0x00, 0x00, 0x00, 0x00, 
  0x00, 0x00, 0x00, 0x00, 0x00, 0x00, 0x00, 0x00, 0x00, 0x00, 0x00, 0x00, 
  0x00, 0x00, 0x00, 0x00, 0x00, 0x00, 0x00, 0x00, 0x00, 0x00, 0x00, 0x00, 
  0x00, 0x00, 0x00, 0x00, 0x00, 0x00, 0x00, 0x00, 0x00, 0x00, 0x00, 0x00, 
  0x00, 0x00, 0x00, 0x00, 0x00, 0x00, 0x00, 0x00, 0x00, 0x00, 0x00, 0x00, 
  0x00, 0x00, 0x00, 0x00, 0x00, 0x00, 0x00, 0x00, 0x00, 0x00, 0x00, 0x00, 
  0x00, 0x00, 0x00, 0x00, 0x00, 0x00, 0x00, 0x00, 0x00, 0x00, 0x00, 0x00, 
  0x00, 0x00, 0x00, 0x00, 0x00, 0x00, 0x00, 0x00, 0x00, 0x00, 0x00, 0x00, 
  0x00, 0x00, 0x00, 0x00, 0x00, 0x00, 0x00, 0x00, 0x00, 0x00, 0x00, 0x00, 
  0x00, 0x00, 0x00, 0x00, 0x00, 0x00, 0x00, 0x00, 0x00, 0x00, 0x00, 0x00, 
  0x00, 0x00, 0x00, 0x00, 0x00, 0x00, 0x00, 0x00, 0x00, 0x00, 0x00, 0x00, 
  0x00, 0x00, 0x00, 0x00, 0x00, 0x00, 0x00, 0x00, 0x00, 0x00, 0x00, 0x00, 
  0x00, 0x00, 0x00, 0x00, 0x00, 0x00, 0x00, 0x00, 0x00, 0x00, 0x00, 0x00, 
  0x00, 0x00, 0x00, 0x00, 0x00, 0x00, 0x00, 0x00, 0x00, 0x00, 0x00, 0x00, 
  0x00, 0x00, 0x00, 0x00, 0x00, 0x00, 0x00, 0x00, 0x00, 0x00, 0x00, 0x00, 
  0x00, 0x00, 0x00, 0x00, 0x00, 0x00, 0x00, 0x00, 0x00, 0x00, 0x00, 0x00, 
  0x00, 0x00, 0x00, 0x00, 0x00, 0x00, 0x00, 0x00, 0x00, 0x00, 0x00, 0x00, 
  0x00, 0x00, 0x00, 0x00, 0x00, 0x00, 0x00, 0x00, 0x00, 0x00, 0x00, 0x00, 
  0x00, 0x00, 0x00, 0x00, 0x00, 0x00, 0x00, 0x00, 0x00, 0x00, 0x00, 0x00, 
  0x00, 0x00, 0x00, 0x00, 0x00, 0x00, 0x00, 0x00, 0x00, 0x00, 0x00, 0x00, 
  0x00, 0x00, 0x00, 0x00, 0x00, 0x00, 0x00, 0x00, 0x00, 0x00, 0x00, 0x00, 
  0x00, 0x00, 0x00, 0x00, 0x00, 0x00, 0x00, 0x00, 0x00, 0x00, 0x00, 0x00, 
  0x00, 0x00, 0x00, 0x00, 0x00, 0x00, 0x00, 0x00, 0x00, 0x00, 0x00, 0x00, 
  0x00, 0x00, 0x00, 0x00, 0x00, 0x00, 0x00, 0x00, 0x00, 0x00, 0x00, 0x00, 
  0x00, 0x00, 0x00, 0x00, 0x00, 0x00, 0x00, 0x00, 0x00, 0x00, 0x00, 0x00, 
  0x00, 0x00, 0x00, 0x00, 0x00, 0x00, 0x00, 0x00, 0x00, 0x00, 0x00, 0x00, 
  0x00, 0x00, 0x00, 0x00, 0x00, 0x00, 0x00, 0x00, 0x00, 0x00, 0x00, 0x00, 
  0x00, 0x00, 0x00, 0x00, 0x00, 0x00, 0x00, 0x00, 0x00, 0x00, 0x00, 0x00, 
  0x00, 0x00, 0x00, 0x00, 0x00, 0x00, 0x00, 0x00, 0x00, 0x00, 0x00, 0x00, 
  0x00, 0x00, 0x00, 0x00, 0x00, 0x00, 0x00, 0x00, 0x00, 0x00, 0x00, 0x00, 
  0x00, 0x00, 0x00, 0x00, 0x00, 0x00, 0x00, 0x00, 0x00, 0x00, 0x00, 0x00, 
  0x00, 0x00, 0x00, 0x00, 0x00, 0x00, 0x00, 0x00, 0x00, 0x00, 0x00, 0x00, 
  0x00, 0x00, 0x00, 0x00, 0x00, 0x00, 0x00, 0x00, 0x00, 0x00, 0x00, 0x00, 
  0x00, 0x00, 0x00, 0x00, 0x00, 0x00, 0x00, 0x00, 0x00, 0x00, 0x00, 0x00, 
  0x00, 0x00, 0x00, 0x00, 0x00, 0x00, 0x00, 0x00, 0x00, 0x00, 0x00, 0x00, 
  0x00, 0x00, 0x00, 0x00, 0x00, 0x00, 0x00, 0x00, 0x00, 0x00, 0x00, 0x00, 
  0x00, 0x00, 0x00, 0x00, 0x00, 0x00, 0x00, 0x00, 0x40, 0x00, 0x00, 0x00, 
  0x23, 0x37, 0x16, 0x3b, 0x19, 0x14, 0x3c, 0x3b, 0x70, 0xce, 0x00, 0x3b, 
  0x7b, 0x57, 0x00, 0x3b, 0xd3, 0x73, 0x07, 0x3b, 0x2f, 0xc7, 0x10, 0x3b, 
  0x58, 0xc9, 0xfe, 0x3a, 0x02, 0x08, 0x05, 0x3b, 0xec, 0x06, 0x07, 0x3b, 
  0x60, 0x51, 0x05, 0x3b, 0xb8, 0xf6, 0x03, 0x3b, 0x21, 0x17, 0x06, 0x3b, 
  0xd9, 0xf1, 0x0e, 0x3b, 0x3f, 0xf4, 0x0d, 0x3b, 0xd8, 0x8b, 0x13, 0x3b, 
  0x2d, 0x80, 0xf5, 0x3a, 0xb6, 0x76, 0x07, 0x3b, 0x00, 0xa5, 0x08, 0x3b, 
  0xab, 0xaa, 0x02, 0x3b, 0xc6, 0xe4, 0x11, 0x3b, 0x8b, 0x7a, 0xdc, 0x3a, 
  0x07, 0x3b, 0x06, 0x3b, 0x0b, 0x35, 0x07, 0x3b, 0xda, 0xb4, 0x14, 0x3b, 
  0xc1, 0x85, 0x05, 0x3b, 0x25, 0x34, 0x09, 0x3b, 0x52, 0xb3, 0x1d, 0x3b, 
  0xb6, 0xd5, 0x00, 0x3b, 0x85, 0x0c, 0x14, 0x3b, 0xbd, 0x43, 0x22, 0x3b, 
  0x63, 0xf7, 0x08, 0x3b, 0xf7, 0xbc, 0x03, 0x3b, 0x25, 0x4b, 0x01, 0x3b, 
  0xd7, 0x3a, 0x09, 0x3b, 0xf1, 0x13, 0x01, 0x3b, 0x7e, 0xe0, 0xf3, 0x3a, 
  0xed, 0xe7, 0x10, 0x3b, 0x36, 0xd6, 0x09, 0x3b, 0x20, 0x09, 0x0e, 0x3b, 
  0x7c, 0x59, 0x10, 0x3b, 0x70, 0xa9, 0x07, 0x3b, 0xd8, 0x5f, 0x01, 0x3b, 
  0x05, 0x54, 0x23, 0x3b, 0xf7, 0x65, 0x07, 0x3b, 0x47, 0xd4, 0xff, 0x3a, 
  0x5b, 0x93, 0xff, 0x3a, 0x1e, 0xf6, 0x10, 0x3b, 0x3d, 0x22, 0x24, 0x3b, 
  0xc2, 0xd1, 0x14, 0x3b, 0x98, 0x2f, 0x22, 0x3b, 0xfa, 0x8b, 0x08, 0x3b, 
  0x7a, 0xee, 0x22, 0x3b, 0x62, 0x9f, 0x19, 0x3b, 0x8c, 0xb2, 0x0d, 0x3b, 
  0x0e, 0x45, 0x2b, 0x3b, 0xab, 0x33, 0xf7, 0x3a, 0x17, 0x1a, 0x01, 0x3b, 
  0x8e, 0x2d, 0x14, 0x3b, 0xf5, 0xb3, 0xfe, 0x3a, 0x89, 0x61, 0x1b, 0x3b, 
  0x28, 0xc0, 0x0c, 0x3b, 0x37, 0xf1, 0x0f, 0x3b, 0x82, 0xfe, 0x1c, 0x3b, 
  0x1b, 0x46, 0x05, 0x3b, 0x12, 0x00, 0x00, 0x00, 0x74, 0x66, 0x6c, 0x2e, 
  0x70, 0x73, 0x65, 0x75, 0x64, 0x6f, 0x5f, 0x71, 0x63, 0x6f, 0x6e, 0x73, 
  0x74, 0x35, 0x00, 0x00, 0x02, 0x00, 0x00, 0x00, 0x40, 0x00, 0x00, 0x00, 
  0x14, 0x00, 0x00, 0x00, 0x96, 0xf8, 0xff, 0xff, 0x00, 0x00, 0x00, 0x01, 
  0x14, 0x00, 0x00, 0x00, 0x24, 0x03, 0x00, 0x00, 0x06, 0x00, 0x00, 0x00, 
  0x00, 0x00, 0x00, 0x02, 0x30, 0x03, 0x00, 0x00, 0xec, 0xf7, 0xff, 0xff, 
  0x08, 0x00, 0x00, 0x00, 0x08, 0x02, 0x00, 0x00, 0x40, 0x00, 0x00, 0x00, 
  0x00, 0x00, 0x00, 0x00, 0x00, 0x00, 0x00, 0x00, 0x00, 0x00, 0x00, 0x00, 
  0x00, 0x00, 0x00, 0x00, 0x00, 0x00, 0x00, 0x00, 0x00, 0x00, 0x00, 0x00, 
  0x00, 0x00, 0x00, 0x00, 0x00, 0x00, 0x00, 0x00, 0x00, 0x00, 0x00, 0x00, 
  0x00, 0x00, 0x00, 0x00, 0x00, 0x00, 0x00, 0x00, 0x00, 0x00, 0x00, 0x00, 
  0x00, 0x00, 0x00, 0x00, 0x00, 0x00, 0x00, 0x00, 0x00, 0x00, 0x00, 0x00, 
  0x00, 0x00, 0x00, 0x00, 0x00, 0x00, 0x00, 0x00, 0x00, 0x00, 0x00, 0x00, 
  0x00, 0x00, 0x00, 0x00, 0x00, 0x00, 0x00, 0x00, 0x00, 0x00, 0x00, 0x00, 
  0x00, 0x00, 0x00, 0x00, 0x00, 0x00, 0x00, 0x00, 0x00, 0x00, 0x00, 0x00, 
  0x00, 0x00, 0x00, 0x00, 0x00, 0x00, 0x00, 0x00, 0x00, 0x00, 0x00, 0x00, 
  0x00, 0x00, 0x00, 0x00, 0x00, 0x00, 0x00, 0x00, 0x00, 0x00, 0x00, 0x00, 
  0x00, 0x00, 0x00, 0x00, 0x00, 0x00, 0x00, 0x00, 0x00, 0x00, 0x00, 0x00, 
  0x00, 0x00, 0x00, 0x00, 0x00, 0x00, 0x00, 0x00, 0x00, 0x00, 0x00, 0x00, 
  0x00, 0x00, 0x00, 0x00, 0x00, 0x00, 0x00, 0x00, 0x00, 0x00, 0x00, 0x00, 
  0x00, 0x00, 0x00, 0x00, 0x00, 0x00, 0x00, 0x00, 0x00, 0x00, 0x00, 0x00, 
  0x00, 0x00, 0x00, 0x00, 0x00, 0x00, 0x00, 0x00, 0x00, 0x00, 0x00, 0x00, 
  0x00, 0x00, 0x00, 0x00, 0x00, 0x00, 0x00, 0x00, 0x00, 0x00, 0x00, 0x00, 
  0x00, 0x00, 0x00, 0x00, 0x00, 0x00, 0x00, 0x00, 0x00, 0x00, 0x00, 0x00, 
  0x00, 0x00, 0x00, 0x00, 0x00, 0x00, 0x00, 0x00, 0x00, 0x00, 0x00, 0x00, 
  0x00, 0x00, 0x00, 0x00, 0x00, 0x00, 0x00, 0x00, 0x00, 0x00, 0x00, 0x00, 
  0x00, 0x00, 0x00, 0x00, 0x00, 0x00, 0x00, 0x00, 0x00, 0x00, 0x00, 0x00, 
  0x00, 0x00, 0x00, 0x00, 0x00, 0x00, 0x00, 0x00, 0x00, 0x00, 0x00, 0x00, 
  0x00, 0x00, 0x00, 0x00, 0x00, 0x00, 0x00, 0x00, 0x00, 0x00, 0x00, 0x00, 
  0x00, 0x00, 0x00, 0x00, 0x00, 0x00, 0x00, 0x00, 0x00, 0x00, 0x00, 0x00, 
  0x00, 0x00, 0x00, 0x00, 0x00, 0x00, 0x00, 0x00, 0x00, 0x00, 0x00, 0x00, 
  0x00, 0x00, 0x00, 0x00, 0x00, 0x00, 0x00, 0x00, 0x00, 0x00, 0x00, 0x00, 
  0x00, 0x00, 0x00, 0x00, 0x00, 0x00, 0x00, 0x00, 0x00, 0x00, 0x00, 0x00, 
  0x00, 0x00, 0x00, 0x00, 0x00, 0x00, 0x00, 0x00, 0x00, 0x00, 0x00, 0x00, 
  0x00, 0x00, 0x00, 0x00, 0x00, 0x00, 0x00, 0x00, 0x00, 0x00, 0x00, 0x00, 
  0x00, 0x00, 0x00, 0x00, 0x00, 0x00, 0x00, 0x00, 0x00, 0x00, 0x00, 0x00, 
  0x00, 0x00, 0x00, 0x00, 0x00, 0x00, 0x00, 0x00, 0x00, 0x00, 0x00, 0x00, 
  0x00, 0x00, 0x00, 0x00, 0x00, 0x00, 0x00, 0x00, 0x00, 0x00, 0x00, 0x00, 
  0x00, 0x00, 0x00, 0x00, 0x00, 0x00, 0x00, 0x00, 0x00, 0x00, 0x00, 0x00, 
  0x00, 0x00, 0x00, 0x00, 0x00, 0x00, 0x00, 0x00, 0x00, 0x00, 0x00, 0x00, 
  0x00, 0x00, 0x00, 0x00, 0x00, 0x00, 0x00, 0x00, 0x00, 0x00, 0x00, 0x00, 
  0x00, 0x00, 0x00, 0x00, 0x00, 0x00, 0x00, 0x00, 0x00, 0x00, 0x00, 0x00, 
  0x00, 0x00, 0x00, 0x00, 0x00, 0x00, 0x00, 0x00, 0x00, 0x00, 0x00, 0x00, 
  0x00, 0x00, 0x00, 0x00, 0x00, 0x00, 0x00, 0x00, 0x00, 0x00, 0x00, 0x00, 
  0x00, 0x00, 0x00, 0x00, 0x00, 0x00, 0x00, 0x00, 0x00, 0x00, 0x00, 0x00, 
  0x00, 0x00, 0x00, 0x00, 0x00, 0x00, 0x00, 0x00, 0x00, 0x00, 0x00, 0x00, 
  0x00, 0x00, 0x00, 0x00, 0x00, 0x00, 0x00, 0x00, 0x00, 0x00, 0x00, 0x00, 
  0x00, 0x00, 0x00, 0x00, 0x00, 0x00, 0x00, 0x00, 0x00, 0x00, 0x00, 0x00, 
  0x00, 0x00, 0x00, 0x00, 0x00, 0x00, 0x00, 0x00, 0x00, 0x00, 0x00, 0x00, 
  0x00, 0x00, 0x00, 0x00, 0x00, 0x00, 0x00, 0x00, 0x40, 0x00, 0x00, 0x00, 
  0x60, 0xeb, 0x8c, 0x3b, 0x7f, 0x70, 0xb0, 0x3b, 0xb0, 0xab, 0x71, 0x3b, 
  0x7f, 0xcc, 0x70, 0x3b, 0xe2, 0x23, 0x7e, 0x3b, 0x90, 0xd1, 0x87, 0x3b, 
  0xef, 0x04, 0x6f, 0x3b, 0xf7, 0x98, 0x79, 0x3b, 0x8f, 0x57, 0x7d, 0x3b, 
  0x9e, 0x22, 0x7a, 0x3b, 0x36, 0x98, 0x77, 0x3b, 0xa7, 0x95, 0x7b, 0x3b, 
  0x45, 0x19, 0x86, 0x3b, 0x5d, 0x2b, 0x85, 0x3b, 0x5e, 0x6a, 0x8a, 0x3b, 
  0xdf, 0x4e, 0x66, 0x3b, 0x4d, 0x29, 0x7e, 0x3b, 0x3b, 0x30, 0x80, 0x3b, 
  0x35, 0x29, 0x75, 0x3b, 0x7a, 0xdd, 0x88, 0x3b, 0xa6, 0xd5, 0x4e, 0x3b, 
  0x01, 0xd9, 0x7b, 0x3b, 0x17, 0xae, 0x7d, 0x3b, 0xff, 0x80, 0x8b, 0x3b, 
  0xe5, 0x84, 0x7a, 0x3b, 0x85, 0xb6, 0x80, 0x3b, 0xfa, 0xf0, 0x93, 0x3b, 
  0x56, 0xb9, 0x71, 0x3b, 0x14, 0xe3, 0x8a, 0x3b, 0x17, 0x39, 0x98, 0x3b, 
  0x85, 0x7d, 0x80, 0x3b, 0xda, 0x2b, 0x77, 0x3b, 0xab, 0x95, 0x72, 0x3b, 
  0xcd, 0xbc, 0x80, 0x3b, 0x18, 0x2e, 0x72, 0x3b, 0xea, 0xc8, 0x64, 0x3b, 
  0x47, 0xf0, 0x87, 0x3b, 0x8e, 0x4e, 0x81, 0x3b, 0xf3, 0x3e, 0x85, 0x3b, 
  0xa7, 0x6a, 0x87, 0x3b, 0x7a, 0x88, 0x7e, 0x3b, 0x81, 0xbc, 0x72, 0x3b, 
  0x85, 0x38, 0x99, 0x3b, 0xe1, 0x09, 0x7e, 0x3b, 0x59, 0xff, 0x6f, 0x3b, 
  0x71, 0xc2, 0x6f, 0x3b, 0x97, 0xfd, 0x87, 0x3b, 0xfa, 0xf9, 0x99, 0x3b, 
  0x1d, 0x9c, 0x8b, 0x3b, 0x31, 0x26, 0x98, 0x3b, 0xc2, 0x18, 0x80, 0x3b, 
  0x43, 0xd9, 0x98, 0x3b, 0xa5, 0x1d, 0x90, 0x3b, 0xbb, 0xed, 0x84, 0x3b, 
  0xbe, 0xab, 0xa0, 0x3b, 0x6a, 0xe7, 0x67, 0x3b, 0xa1, 0x39, 0x72, 0x3b, 
  0x12, 0x02, 0x8b, 0x3b, 0xde, 0xf0, 0x6e, 0x3b, 0xf0, 0xc3, 0x91, 0x3b, 
  0x57, 0x0a, 0x84, 0x3b, 0xd6, 0x08, 0x87, 0x3b, 0x5b, 0x47, 0x93, 0x3b, 
  0x79, 0x0d, 0x7a, 0x3b, 0x12, 0x00, 0x00, 0x00, 0x74, 0x66, 0x6c, 0x2e, 
  0x70, 0x73, 0x65, 0x75, 0x64, 0x6f, 0x5f, 0x71, 0x63, 0x6f, 0x6e, 0x73, 
  0x74, 0x34, 0x00, 0x00, 0x01, 0x00, 0x00, 0x00, 0x40, 0x00, 0x00, 0x00, 
  0xe6, 0xfb, 0xff, 0xff, 0x00, 0x00, 0x00, 0x01, 0x14, 0x00, 0x00, 0x00, 
  0xa8, 0x01, 0x00, 0x00, 0x05, 0x00, 0x00, 0x00, 0x00, 0x00, 0x00, 0x09, 
  0xb4, 0x01, 0x00, 0x00, 0x3c, 0xfb, 0xff, 0xff, 0x08, 0x00, 0x00, 0x00, 
  0x0c, 0x01, 0x00, 0x00, 0x20, 0x00, 0x00, 0x00, 0x00, 0x00, 0x00, 0x00, 
  0x00, 0x00, 0x00, 0x00, 0x00, 0x00, 0x00, 0x00, 0x00, 0x00, 0x00, 0x00, 
  0x00, 0x00, 0x00, 0x00, 0x00, 0x00, 0x00, 0x00, 0x00, 0x00, 0x00, 0x00, 
  0x00, 0x00, 0x00, 0x00, 0x00, 0x00, 0x00, 0x00, 0x00, 0x00, 0x00, 0x00, 
  0x00, 0x00, 0x00, 0x00, 0x00, 0x00, 0x00, 0x00, 0x00, 0x00, 0x00, 0x00, 
  0x00, 0x00, 0x00, 0x00, 0x00, 0x00, 0x00, 0x00, 0x00, 0x00, 0x00, 0x00, 
  0x00, 0x00, 0x00, 0x00, 0x00, 0x00, 0x00, 0x00, 0x00, 0x00, 0x00, 0x00, 
  0x00, 0x00, 0x00, 0x00, 0x00, 0x00, 0x00, 0x00, 0x00, 0x00, 0x00, 0x00, 
  0x00, 0x00, 0x00, 0x00, 0x00, 0x00, 0x00, 0x00, 0x00, 0x00, 0x00, 0x00, 
  0x00, 0x00, 0x00, 0x00, 0x00, 0x00, 0x00, 0x00, 0x00, 0x00, 0x00, 0x00, 
  0x00, 0x00, 0x00, 0x00, 0x00, 0x00, 0x00, 0x00, 0x00, 0x00, 0x00, 0x00, 
  0x00, 0x00, 0x00, 0x00, 0x00, 0x00, 0x00, 0x00, 0x00, 0x00, 0x00, 0x00, 
  0x00, 0x00, 0x00, 0x00, 0x00, 0x00, 0x00, 0x00, 0x00, 0x00, 0x00, 0x00, 
  0x00, 0x00, 0x00, 0x00, 0x00, 0x00, 0x00, 0x00, 0x00, 0x00, 0x00, 0x00, 
  0x00, 0x00, 0x00, 0x00, 0x00, 0x00, 0x00, 0x00, 0x00, 0x00, 0x00, 0x00, 
  0x00, 0x00, 0x00, 0x00, 0x00, 0x00, 0x00, 0x00, 0x00, 0x00, 0x00, 0x00, 
  0x00, 0x00, 0x00, 0x00, 0x00, 0x00, 0x00, 0x00, 0x00, 0x00, 0x00, 0x00, 
  0x00, 0x00, 0x00, 0x00, 0x00, 0x00, 0x00, 0x00, 0x00, 0x00, 0x00, 0x00, 
  0x00, 0x00, 0x00, 0x00, 0x00, 0x00, 0x00, 0x00, 0x00, 0x00, 0x00, 0x00, 
  0x00, 0x00, 0x00, 0x00, 0x00, 0x00, 0x00, 0x00, 0x00, 0x00, 0x00, 0x00, 
  0x00, 0x00, 0x00, 0x00, 0x00, 0x00, 0x00, 0x00, 0x00, 0x00, 0x00, 0x00, 
  0x00, 0x00, 0x00, 0x00, 0x00, 0x00, 0x00, 0x00, 0x00, 0x00, 0x00, 0x00, 
  0x00, 0x00, 0x00, 0x00, 0x20, 0x00, 0x00, 0x00, 0xc6, 0x6f, 0x2e, 0x3b, 
  0x1a, 0xde, 0x0a, 0x3b, 0xe4, 0x26, 0x09, 0x3b, 0xf3, 0xd7, 0x1b, 0x3b, 
  0xd1, 0xf1, 0x12, 0x3b, 0x63, 0x0f, 0x23, 0x3b, 0x14, 0x00, 0x16, 0x3b, 
  0x6e, 0x28, 0xfa, 0x3a, 0xf6, 0x49, 0x01, 0x3b, 0x3c, 0xef, 0x00, 0x3b, 
  0x47, 0xd1, 0x05, 0x3b, 0x99, 0xb4, 0x09, 0x3b, 0x5f, 0xe3, 0x05, 0x3b, 
  0x17, 0x11, 0x0d, 0x3b, 0x02, 0xdb, 0xf8, 0x3a, 0x88, 0x8f, 0x00, 0x3b, 
  0xbb, 0x92, 0x0d, 0x3b, 0x0b, 0xb0, 0x16, 0x3b, 0x20, 0xb7, 0x02, 0x3b, 
  0x52, 0x56, 0xfc, 0x3a, 0xc1, 0x4d, 0x01, 0x3b, 0x84, 0x8b, 0x08, 0x3b, 
  0x14, 0x0a, 0x1d, 0x3b, 0xa3, 0xbf, 0x00, 0x3b, 0x72, 0xa8, 0x09, 0x3b, 
  0x36, 0xa6, 0x00, 0x3b, 0x7b, 0x6c, 0x09, 0x3b, 0x48, 0x47, 0x14, 0x3b, 
  0xd2, 0x09, 0x02, 0x3b, 0x2d, 0xe9, 0x0c, 0x3b, 0x21, 0x67, 0x0c, 0x3b, 
  0x82, 0x17, 0xff, 0x3a, 0x12, 0x00, 0x00, 0x00, 0x74, 0x66, 0x6c, 0x2e, 
  0x70, 0x73, 0x65, 0x75, 0x64, 0x6f, 0x5f, 0x71, 0x63, 0x6f, 0x6e, 0x73, 
  0x74, 0x33, 0x00, 0x00, 0x02, 0x00, 0x00, 0x00, 0x20, 0x00, 0x00, 0x00, 
  0x40, 0x00, 0x00, 0x00, 0xbe, 0xfd, 0xff, 0xff, 0x00, 0x00, 0x00, 0x01, 
  0x14, 0x00, 0x00, 0x00, 0xa4, 0x01, 0x00, 0x00, 0x04, 0x00, 0x00, 0x00, 
  0x00, 0x00, 0x00, 0x02, 0xb0, 0x01, 0x00, 0x00, 0x14, 0xfd, 0xff, 0xff, 
  0x08, 0x00, 0x00, 0x00, 0x08, 0x01, 0x00, 0x00, 0x20, 0x00, 0x00, 0x00, 
  0x00, 0x00, 0x00, 0x00, 0x00, 0x00, 0x00, 0x00, 0x00, 0x00, 0x00, 0x00, 
  0x00, 0x00, 0x00, 0x00, 0x00, 0x00, 0x00, 0x00, 0x00, 0x00, 0x00, 0x00, 
  0x00, 0x00, 0x00, 0x00, 0x00, 0x00, 0x00, 0x00, 0x00, 0x00, 0x00, 0x00, 
  0x00, 0x00, 0x00, 0x00, 0x00, 0x00, 0x00, 0x00, 0x00, 0x00, 0x00, 0x00, 
  0x00, 0x00, 0x00, 0x00, 0x00, 0x00, 0x00, 0x00, 0x00, 0x00, 0x00, 0x00, 
  0x00, 0x00, 0x00, 0x00, 0x00, 0x00, 0x00, 0x00, 0x00, 0x00, 0x00, 0x00, 
  0x00, 0x00, 0x00, 0x00, 0x00, 0x00, 0x00, 0x00, 0x00, 0x00, 0x00, 0x00, 
  0x00, 0x00, 0x00, 0x00, 0x00, 0x00, 0x00, 0x00, 0x00, 0x00, 0x00, 0x00, 
  0x00, 0x00, 0x00, 0x00, 0x00, 0x00, 0x00, 0x00, 0x00, 0x00, 0x00, 0x00, 
  0x00, 0x00, 0x00, 0x00, 0x00, 0x00, 0x00, 0x00, 0x00, 0x00, 0x00, 0x00, 
  0x00, 0x00, 0x00, 0x00, 0x00, 0x00, 0x00, 0x00, 0x00, 0x00, 0x00, 0x00, 
  0x00, 0x00, 0x00, 0x00, 0x00, 0x00, 0x00, 0x00, 0x00, 0x00, 0x00, 0x00, 
  0x00, 0x00, 0x00, 0x00, 0x00, 0x00, 0x00, 0x00, 0x00, 0x00, 0x00, 0x00, 
  0x00, 0x00, 0x00, 0x00, 0x00, 0x00, 0x00, 0x00, 0x00, 0x00, 0x00, 0x00, 
  0x00, 0x00, 0x00, 0x00, 0x00, 0x00, 0x00, 0x00, 0x00, 0x00, 0x00, 0x00, 
  0x00, 0x00, 0x00, 0x00, 0x00, 0x00, 0x00, 0x00, 0x00, 0x00, 0x00, 0x00, 
  0x00, 0x00, 0x00, 0x00, 0x00, 0x00, 0x00, 0x00, 0x00, 0x00, 0x00, 0x00, 
  0x00, 0x00, 0x00, 0x00, 0x00, 0x00, 0x00, 0x00, 0x00, 0x00, 0x00, 0x00, 
  0x00, 0x00, 0x00, 0x00, 0x00, 0x00, 0x00, 0x00, 0x00, 0x00, 0x00, 0x00, 
  0x00, 0x00, 0x00, 0x00, 0x00, 0x00, 0x00, 0x00, 0x00, 0x00, 0x00, 0x00, 
  0x00, 0x00, 0x00, 0x00, 0x00, 0x00, 0x00, 0x00, 0x00, 0x00, 0x00, 0x00, 
  0x00, 0x00, 0x00, 0x00, 0x20, 0x00, 0x00, 0x00, 0xd1, 0xd1, 0x7b, 0x3a, 
  0xb8, 0x78, 0x48, 0x3a, 0xaa, 0xfe, 0x45, 0x3a, 0x75, 0xfa, 0x60, 0x3a, 
  0xb5, 0x21, 0x54, 0x3a, 0x72, 0x65, 0x6b, 0x3a, 0xfe, 0x8a, 0x58, 0x3a, 
  0xea, 0x90, 0x34, 0x3a, 0xc4, 0xa4, 0x3a, 0x3a, 0xcb, 0x21, 0x3a, 0x3a, 
  0x60, 0x2e, 0x41, 0x3a, 0x3c, 0xcb, 0x46, 0x3a, 0x7f, 0x48, 0x41, 0x3a, 
  0x75, 0xa5, 0x4b, 0x3a, 0x3f, 0xa0, 0x33, 0x3a, 0xa2, 0x97, 0x39, 0x3a, 
  0x9c, 0x60, 0x4c, 0x3a, 0x04, 0x89, 0x59, 0x3a, 0xec, 0xb3, 0x3c, 0x3a, 
  0x9b, 0x23, 0x36, 0x3a, 0x3e, 0xaa, 0x3a, 0x3a, 0x5d, 0x1e, 0x45, 0x3a, 
  0x63, 0xb4, 0x62, 0x3a, 0x14, 0xdd, 0x39, 0x3a, 0xb1, 0xb9, 0x46, 0x3a, 
  0x60, 0xb8, 0x39, 0x3a, 0x20, 0x63, 0x46, 0x3a, 0xa6, 0x0e, 0x56, 0x3a, 
  0xbd, 0xb9, 0x3b, 0x3a, 0xd6, 0x6b, 0x4b, 0x3a, 0x19, 0xb0, 0x4a, 0x3a, 
  0x9d, 0x20, 0x38, 0x3a, 0x12, 0x00, 0x00, 0x00, 0x74, 0x66, 0x6c, 0x2e, 
  0x70, 0x73, 0x65, 0x75, 0x64, 0x6f, 0x5f, 0x71, 0x63, 0x6f, 0x6e, 0x73, 
  0x74, 0x32, 0x00, 0x00, 0x01, 0x00, 0x00, 0x00, 0x20, 0x00, 0x00, 0x00, 
  0x8e, 0xff, 0xff, 0xff, 0x00, 0x00, 0x00, 0x01, 0x14, 0x00, 0x00, 0x00, 
  0x40, 0x00, 0x00, 0x00, 0x03, 0x00, 0x00, 0x00, 0x00, 0x00, 0x00, 0x09, 
  0x4c, 0x00, 0x00, 0x00, 0xe4, 0xfe, 0xff, 0xff, 0x08, 0x00, 0x00, 0x00, 
  0x1c, 0x00, 0x00, 0x00, 0x02, 0x00, 0x00, 0x00, 0x00, 0x00, 0x00, 0x00, 
  0x00, 0x00, 0x00, 0x00, 0x00, 0x00, 0x00, 0x00, 0x00, 0x00, 0x00, 0x00, 
  0x00, 0x00, 0x00, 0x00, 0x02, 0x00, 0x00, 0x00, 0xea, 0xbf, 0x4e, 0x3b, 
  0x22, 0x0c, 0x4c, 0x3b, 0x12, 0x00, 0x00, 0x00, 0x74, 0x66, 0x6c, 0x2e, 
  0x70, 0x73, 0x65, 0x75, 0x64, 0x6f, 0x5f, 0x71, 0x63, 0x6f, 0x6e, 0x73, 
  0x74, 0x31, 0x00, 0x00, 0x02, 0x00, 0x00, 0x00, 0x02, 0x00, 0x00, 0x00, 
  0x20, 0x00, 0x00, 0x00, 0x00, 0x00, 0x16, 0x00, 0x1c, 0x00, 0x18, 0x00, 
  0x17, 0x00, 0x10, 0x00, 0x0c, 0x00, 0x08, 0x00, 0x00, 0x00, 0x00, 0x00, 
  0x00, 0x00, 0x07, 0x00, 0x16, 0x00, 0x00, 0x00, 0x00, 0x00, 0x00, 0x01, 
  0x14, 0x00, 0x00, 0x00, 0x40, 0x00, 0x00, 0x00, 0x02, 0x00, 0x00, 0x00, 
  0x00, 0x00, 0x00, 0x02, 0x4c, 0x00, 0x00, 0x00, 0x6c, 0xff, 0xff, 0xff, 
  0x08, 0x00, 0x00, 0x00, 0x1c, 0x00, 0x00, 0x00, 0x02, 0x00, 0x00, 0x00, 
  0x00, 0x00, 0x00, 0x00, 0x00, 0x00, 0x00, 0x00, 0x00, 0x00, 0x00, 0x00, 
  0x00, 0x00, 0x00, 0x00, 0x00, 0x00, 0x00, 0x00, 0x02, 0x00, 0x00, 0x00, 
  0xf2, 0x79, 0x83, 0x3a, 0x07, 0xc2, 0x81, 0x3a, 0x11, 0x00, 0x00, 0x00, 
  0x74, 0x66, 0x6c, 0x2e, 0x70, 0x73, 0x65, 0x75, 0x64, 0x6f, 0x5f, 0x71, 
  0x63, 0x6f, 0x6e, 0x73, 0x74, 0x00, 0x00, 0x00, 0x01, 0x00, 0x00, 0x00, 
  0x02, 0x00, 0x00, 0x00, 0x00, 0x00, 0x16, 0x00, 0x20, 0x00, 0x1c, 0x00, 
  0x1b, 0x00, 0x14, 0x00, 0x10, 0x00, 0x0c, 0x00, 0x00, 0x00, 0x00, 0x00, 
  0x08, 0x00, 0x07, 0x00, 0x16, 0x00, 0x00, 0x00, 0x00, 0x00, 0x00, 0x01, 
  0x18, 0x00, 0x00, 0x00, 0x2c, 0x00, 0x00, 0x00, 0x4c, 0x00, 0x00, 0x00, 
  0x01, 0x00, 0x00, 0x00, 0x00, 0x00, 0x00, 0x09, 0x68, 0x00, 0x00, 0x00, 
  0x02, 0x00, 0x00, 0x00, 0xff, 0xff, 0xff, 0xff, 0x14, 0x00, 0x00, 0x00, 
  0x0c, 0x00, 0x0c, 0x00, 0x00, 0x00, 0x00, 0x00, 0x08, 0x00, 0x04, 0x00, 
  0x0c, 0x00, 0x00, 0x00, 0x08, 0x00, 0x00, 0x00, 0x14, 0x00, 0x00, 0x00, 
  0x01, 0x00, 0x00, 0x00, 0x3a, 0x00, 0x00, 0x00, 0x00, 0x00, 0x00, 0x00, 
  0x00, 0x00, 0x00, 0x00, 0x01, 0x00, 0x00, 0x00, 0x5d, 0x28, 0xf0, 0x3f, 
  0x21, 0x00, 0x00, 0x00, 0x73, 0x65, 0x72, 0x76, 0x69, 0x6e, 0x67, 0x5f, 
  0x64, 0x65, 0x66, 0x61, 0x75, 0x6c, 0x74, 0x5f, 0x6b, 0x65, 0x72, 0x61, 
  0x73, 0x5f, 0x74, 0x65, 0x6e, 0x73, 0x6f, 0x72, 0x5f, 0x33, 0x32, 0x3a, 
  0x30, 0x00, 0x00, 0x00, 0x02, 0x00, 0x00, 0x00, 0x01, 0x00, 0x00, 0x00, 
  0x14, 0x00, 0x00, 0x00, 0x02, 0x00, 0x00, 0x00, 0x24, 0x00, 0x00, 0x00, 
  0x04, 0x00, 0x00, 0x00, 0xf0, 0xff, 0xff, 0xff, 0x19, 0x00, 0x00, 0x00, 
  0x02, 0x00, 0x00, 0x00, 0x00, 0x00, 0x00, 0x19, 0x0c, 0x00, 0x10, 0x00, 
  0x0f, 0x00, 0x00, 0x00, 0x08, 0x00, 0x04, 0x00, 0x0c, 0x00, 0x00, 0x00, 
  0x09, 0x00, 0x00, 0x00, 0x04, 0x00, 0x00, 0x00, 0x00, 0x00, 0x00, 0x09, 
};

const int g_model_len = 8616;

#endif // MODEL_DATA_H
